<unk>
<s>
</s>
[PAD]
[UNK]
[CLS]
[SEP]
[MASK]
,
의
에
는
하
이
.
을
를
상
다
1
제
한
가
상기
수
있
되
도
으
-
된
)
은
으로
고
(
2
로
기
어
여
전
에서
시
및
적
구
와
또
발
사
들
3
인
형
과
것
지
본
단
위
실
할
포
게
방
내
한다
대
유
일
또는
4
정
중
부
따
발명
그
포함
화
면
5
##장치
사용
공
바
형성
아
설
조
연
용
된다
스
실시
통
특
분
보
C
개
경
결
예
동
성
자
비
나
:
서
배
같
될
모
0
반
도록
디
표
주
프
6
메
어서
;
회
##부터
소
m
항
의해
각
며
장치
함
데
##레이
실시예
관
신
정보
따라
구성
S
##이터
등
/
저
선
층
A
경우
10
단계
H
방법
접
변
제어
영
데이터
P
7
R
마
또한
입
해
후
세
않
생
차
신호
로부터
M
하나
N
시키
나타
위한
8
이용
연결
거
필
특징
알
위치
측
제공
광
원
패
따른
라
외
도시
내지
##처리
피
%
때
였
##이스
물
이상
같이
플
D
##이트
작
다른
복
제조
I
출
프로
바람
감
미
a
바람직
##합물
사이
더
오
트
재
##스템
T
파
안
설명
가능
갖
9
결합
계
대한
"
증
코
진
##in
양
##이드
종
각각
시스템
회전
요
설치
카
##er
고정
선택
만
온
이동
##정보
처리
L
상태
추
위해
통해
검
절
영역
B
산
발생
리
무
이루
20
열
방향
기판
시간
구조
##폴리
치
장
표시
수신
출력
약
c
구비
##on
입력
으로써
음
보다
노
액
간
저장
폴리
압
금
로서
매
생성
크
었
타
p
공급
평
클
내부
이루어
효
O
화합물
확
블
최
전극
직
판
혼
투
두
s
참
부분
구동
°
##at
거나
전송
단말
b
탄
E
커
문
지지
식
##스트
레
도면
교
적어
##ol
이러
적어도
수행
-(
반응
g
측정
표면
따라서
테
임
온도
##도체
]
복수
12
##레임
F
불
d
형태
동일
G
나타내
상부
으며
페
V
디스
높
기술
통신
냉
n
##레이트
동작
으로부터
충
'
송
##en
가지
이하
배치
참조
초
채
11
질
##범위
목
##부재
전자
다음
첨
그리
즉
결정
중량
조성
설정
금속
##or
나타낸
t
현
대해
없
##므로
회로
##센서
활
외부
##00
반도체
우
공정
##스터
환
슬
그리고
##라이
호
으로서
강
속
하부
명
관한
전압
##al
기능
##방향
##ic
흡
15
점
결과
전기
접속
##an
검출
효과
조성물
=
건
##모리
값
축
얻
체
메틸
번
프레임
대응
합
시켜
메모리
밀
여기
##삽입
필요
유지
베
받
제거
돌
순
때문
버
드
가스
의한
##신호
수지
모듈
부재
컨
##et
향
운
삽입
일부
영상
물질
길
100
범위
염
블록
동안
##미노
분리
패턴
인터
터
방지
면서
mm
다수
네
링
[
셀
함유
무선
이미
소자
비교
형상
완
U
13
디스플
어느
##비스
아니
케
##re
콘
목적
30
서버
일반
##ion
공기
채널
화학
트랜
브
종래
컴
센서
특정
##ing
다양
~
단말기
게이트
의하
소정
응
##방법
고안
헤
+
당
##밸브
시킨
토
첨가
편
디스플레이
작동
세포
조절
유기
그러
는다
산화
추가
서비스
수용
##수단
##it
문제
활성
##메틸
##ar
##클로
접촉
##위치
서로
##지스터
50
상세
전달
위하
캐
키
제어부
특히
알킬
##ro
행
지만
##바이스
유닛
##le
디바이스
걸
14
방식
기준
발광
##세서
시킬
수단
W
차량
농
##합체
자동
송신
##워크
므로
까
박
손
변환
트리
성분
적용
혼합
까지
절연
청
치환
실리
공간
단면
장착
##그램
존
과정
전원
히
기재
역
재료
f
##이어
추출
확인
두께
증가
네트
해당
μ
이루어지
부착
냉각
예컨
혼합물
크기
25
대하
16
좌
예컨대
는데
일정
본체
X
이루어진
용액
측면
이나
관련
##프트
존재
##ct
필름
배출
##테르
필터
스트
가열
에틸
구체
##이블
관리
감지
##st
아미노
됨
네트워크
##시지
라인
전체
결제
별
구현
암
이미지
롤
볼
##루오
건조
전력
엔
##세스
압력
##이션
기록
전류
특성
임의
변화
컴퓨
감소
속도
벤
##파수
모드
##스크
달
다이
메시지
트랜지스터
개시
##우징
보호
##디오
웨
옥
200
한편
##단부
수직
∼
집
프로그램
레이
동시
이때
말
함께
가이드
서열
##크릴
에게
##이프
돌출
예시
변형
J
##프로
작업
밸브
향상
길이
연장
조립
한정
##섬유
분석
플라
근
탄소
스크
화학식
작용
패널
백
주파수
40
입자
흐
##미드
통상
압축
요소
낮
변경
접착
18
유리
비트
mg
기초
마이
페닐
이온
##이퍼
코팅
##몸체
컴퓨터
막
글
통하
##ed
##톡시
##el
시트
반사
액정
##텐츠
##에틸
##라인
그룹
중심
서브
하우징
촉
실행
19
_
더욱
인가
착
균
화상
##is
제한
##id
합성
##es
도전
조건
티
##페이스
유전
K
아세
그러나
가진
폐
따르
부호
성형
잔
충전
모터
단위
스위치
홀
00
17
21
모든
ml
판단
CH
##레스
커버
이송
e
단부
식별
요청
휴
용이
l
실리콘
체결
심
많
가장
허
일측
##렌즈
##챔버
##록시
관통
##페닐
}
나타낸다
태
22
안정
탄성
문제점
레벨
터치
베이스
##루오로
플레이트
인터페이스
독
조정
수평
내측
교반
취
유입
침
억
화소
중앙
파일
60
농도
마이크
승
클로
폭
특허
수소
홈
스테
##너지
##ac
디지
##이지
휴대
탈
조합
중간
24
광학
시킨다
번호
##플리
##프링
용기
k
##as
통과
##형태
청구
코드
몸체
o
##트라
노드
요구
저항
단자
대상
개구
원자
현재
유사
그래
애
h
##린더
웨이퍼
카르
했
##케이션
치료
높이
Y
적층
천
끼
의미
정도
맞
조작
몰
##ation
거리
%,
##ent
억제
광고
mmol
단면도
상술
##em
##샘플
규
뿐
둘
연료
색
모두
-[
##리딘
급
##시도
챔버
소스
경사
##산화
인쇄
재생
누
##테나
가공
정의
사용자
에너지
##om
디지털
율
아크릴
제작
직접
렌즈
제품
##플리케이션
유체
##스테르
용매
##네이트
차단
줄
사시도
제조방법
샘플
간격
계산
##라이드
진행
##메라
주입
평면
인증
경로
23
보조
위해서
##NA
##백질
##펌프
촉매
w
안테나
니
외측
시험
칩
##ra
유도
화면
##od
음성
케이스
큰
권
평균
픽
섬유
투여
연속
흡수
올
헤드
개방
효율
##리어
노출
멀
##요소
프로세서
x
분산
상호
카메라
투명
액체
##상태
카드
##전압
기지
분자
바이
Z
등록
80
레이저
##알킬
진공
명령
째
첨부
nm
##루미
##전극
##ED
상이
i
단백질
최소
##램프
적절
##터리
##탱크
히드
##il
흐름
응답
##미터
인식
디스크
배열
CD
최대
촬
기지국
해서
##가능
쌍
PC
다시
다는
여과
##튜브
mL
중합체
항체
달성
적합
인접
병
이후
실시형태
바닥
·
언
대해서
##가스
생산
미리
##단말
여부
##회로
전술
각도
가압
##ig
배선
유동
도포
##물질
매체
캡
CO
기반
패킷
스프링
##프레임
자기
수득
코일
방사
칼
##ul
이것
안내
실린더
테트라
검색
는지
경화
이어
{
좋
업
진동
마련
##먼트
황
컬
아래
조사
##영역
##부분
용해
상대
박막
##um
##번호
##ag
핀
##yl
도어
##웨어
시켰
##롤러
전지
##ch
덮
혈
이소
##소자
##구조
명세서
상면
메인
##기판
강도
여러
##티드
내용
담
먼
아이
전환
절단
##펄스
평가
비디오
획
##ut
분야
으면
90
일체
패드
나노
산출
오프
프리
살
in
루
##제어
분사
엔진
에어
정제
파라
해결
개선
개략
단일
마스크
##오드
##프로필
알루미
반복
벽
##us
멀티
없이
v
퍼
기계
배터리
Si
롤러
구멍
어야
구성요소
격
##nd
우수
하이드
##인트
32
환경
충분
r
전면
##트리
초기
움
35
중량부
##탄올
검사
빔
##옥시
노즐
증폭
군
접합
##분자
분말
링크
기기
부품
청구항
Hz
획득
방출
##외선
31
Q
스위
주변
방송
와이어
##통신
새
독립
판독
직경
고체
상승
70
허용
극
증착
개폐
양측
배기
세척
부가
고자
현상
매우
부틸
골
엘
##am
시킴
상하
흡입
으므로
플라즈
타이
코어
비율
으나
이해
질량
예측
의해서
##벡터
상품
용어
헤테
관계
산화물
##입자
전화
전방
액세스
센
완전
##복실
할당
RF
스위칭
##ur
세정
컨텐츠
나사
별도
혹
##아미드
##수신
디메틸
운전
분해
##모듈
펄스
##어링
조명
##그래
타입
할로
웹
26
앞
부위
핸
종류
##히드
외주
기어
혹은
분할
드레
샤
클로로
45
시클로
곡
움직
Al
투과
끝
##바일
##패시
세트
걸림
모바일
##코딩
##트륨
In
드라이
##플루오로
산소
상세히
철
버퍼
휘
유전자
'-
용량
##ot
미세
정확
자동차
국
##os
프로세스
펌프
인터넷
발현
*
공중
##oc
위상
교환
유효
cm
미만
아릴
벡터
절연막
준
시작
녹
II
다중
##유닛
##아민
헤테로
이격
LED
굴
##활성
테이블
기구
마이크로
전도
메타
##교환
##iv
가변
알루미늄
기간
어드
##MS
##아미노
보여
초과
성장
공지
콘텐츠
##시스템
중합
잉
후방
컨트
프로필
%)
##AT
복합
300
못
인해
용접
##러스
오일
희
캐리어
논
총
본원
튜브
##ET
히드록시
순서
##언트
처
##AC
##니터
수납
토출
ID
차이
##베이스
실질
주사
파라미터
정상
보정
##힌지
투입
저하
광원
질소
난
모니터
파이프
글리
##ate
실험
대역
구조물
테스트
먼저
##IN
방전
re
28
증발
##워드
##OS
##ad
행하
모노
헥
##화물
래
태양
금융
로드
##수소
촬영
동기
##라이언트
지연
오디오
이어서
##테이트
포트
연산
머
설계
애플리케이션
##지스트
정지
##ter
주기
잠
필드
배양
..
클라이언트
습
피스
27
영향
##패널
되게
펜
비스
α
아미노산
##에틸렌
파장
인지
메톡시
힌지
스트림
##진다
##보닐
##im
##로드
##모터
회동
상단
01
##업자
33
최종
크로
완료
##폭시
##니트
스크린
케이블
##어나
##표시
어드레스
주요
확산
##전지
반대
##패시터
각종
벤조
알려
끼워
픽셀
슬라이
게임
았
##고리
##ID
라고
패키
너
NM
쉽
500
성능
표현
##디어
어레이
고려
##단계
률
##카르
보강
역할
전해
가질
송수신
##실시
풀
포토
##ph
해야
##코드
##공급
##Cl
균일
고객
실제
##un
##결합
스텝
피부
생략
용융
탑
공통
에스테르
##공정
안전
하드
al
리드
000
모델
##넥터
이외
형광
참고
수집
가상
새로
밀봉
잉크
생성물
MS
편광
연마
##CH
물론
##기어
제어기
식각
환자
대향
##AM
소프트
운동
돌기
기억
고분자
##벨트
##eth
공개
PD
빛
농축
접착제
도입
기존
류
램프
##코더
회전축
##레오
기본
×
콜
솔
고리
고무
함량
상측
문자
날
연소
일단
##데이터
에칭
##방지
##AN
조립체
플루오로
만들
쪽
##콕시
데이터베이스
of
핵
##ab
차원
지정
만큼
밀착
##ce
대략
비교예
피스톤
넣
하단
물리
플라스
다운
표준
우선
버튼
샤프트
피리
반송
패키지
##그네
구간
열교환
복수개
분류
DC
힘
원통
종료
안착
폴리머
좌우
개별
흡착
마다
융
##단말기
지방
지시
암호
커넥터
##서버
순환
발전
##사이드
일실시
정렬
29
창
##라이트
냉매
대기
이전
실내
##가지
봉
공중합체
34
볼트
얼
##버터
확장
36
실온
IP
##량체
##조절
석
주행
##밴드
떨
새로운
pH
##공간
##링크
기체
매트
##벤트
이루어진다
플로
계속
부여
41
야
조직
##팽창
##돌기
다이오드
스케
계수
##울러
인간
120
추정
##레이터
##우스
##pm
##세포
밀도
마찬
마찬가지
미도
##셈블
42
150
승강
릴
##OR
하이
였으
##리트
잘
분배
##MA
##ec
소재
순차
##펩티드
##그래피
유압
에틸렌
##셈블리
포인트
판정
제외
75
평행
재질
##ay
베어링
회수
유도체
출원
연관
가로
플래
깊
대체
변조
##ine
##결정
일치
하측
일실시예
##형상
이동통신
언급
미도시
객
합금
37
최적
##영상
임계
실리카
##라켓
떨어
무기
##ip
비닐
##라도
이중
가동
##ER
##ow
##ap
400
비용
##PS
부하
##마트
프린
IC
사상
and
페이지
##단자
##하이드
지점
비해
내장
##ide
##지지
움직임
이벤트
전하
우측
st
스마트
##거리
##품질
미국
분포
대신
자원
##아졸
푸
스토
##기기
유로
##에스테르
소프트웨어
손상
자체
##리브
삼
개수
원료
충격
##잡이
브레이
스피
면적
테이프
##수지
놓
개발
바디
횡
구동부
해도
어도
##세트
##레인
##뉴클
클러
개구부
원형
##시간
-,
빠
능
통합
긴
플랜
던
탐
##복실산
시료
걸쳐
보상
컬러
알콕시
에폭시
손잡이
트랜스
잡
세라
고온
완충
##블록
수정
제시
##NS
견
확대
버스
탄소수
간섭
시점
속하
탄화
학
사이클
해제
##리지
##러그
##티브
##ell
잔류
55
망
레일
95
계면
##if
구리
그것
##qu
라이
SO
벗
동력
타이밍
할로겐
et
Na
돌출부
어셈블리
탱크
유형
객체
##Hz
##매체
커플
콘택
다고
##한다
뒤
LC
AP
숙
범
상황
섹
##크리트
친
구현예
##ss
관찰
몇
진다
ST
간단
##기구
개인
오염
수분
##로그
##he
노광
세라믹
통로
자유
##음파
처리부
##릭스
보관
정수
##뉴클레오
선형
통한
US
수준
에지
면역
홀더
추출물
세탁
##히드로
기타
##op
도금
초음파
##펙트
덮개
좌측
컨트롤러
##그먼트
그래프
지식
음극
슬러
피페
##글리
원격
포스
특별
##ess
후술
고유
CP
수신기
DNA
슬롯
피리딘
##선택
히터
소비
복호
거의
받침
어플리케이션
Ch
##마토
NH
##og
포장
슬라이딩
「
##출력
리튬
불순
##IC
##에이터
측벽
연통
폐쇄
넓
어떤
향하
구조체
##메인
##넌트
05
아민
척
110
##th
중요
장점
아크릴레이트
점착
양극
프로토
더라도
하이드록시
아세테이트
발신
51
중공
##치환
공유
물품
불순물
연결부
단량체
β
##AR
오목
z
통화
38
##양태
##용기
##LC
못하
유용
##pl
사람
##특허
깊이
도달
##이타
감압
kg
##ST
지지부
벨트
y
카운
정전
사이클로
」
지원
마그네
##포넌트
말단
부터
##사이
마찰
절곡
유량
윈
스페
실시양태
염기
##ran
압축기
도메인
표시부
##ical
가하
부호화
프로토콜
풍
##멘트
65
##ir
클럭
##시트
상응
보안
파워
##나트륨
함수
##오스
##ert
43
아세트
후면
팽창
UE
로써
둘레
##ect
브레이크
식물
플랜지
##커버
팅
##모드
MP
보인
해석
당업자
라는
48
근접
목표
절차
NMR
품질
배수
활용
스티
콘크리트
##플레이트
##레이드
##도우
희석
수학
남
접지
주위
AC
캠
##수료
교차
술
수용액
에러
란
계층
양호
벤질
##자리
코딩
컴포넌트
##시아
주소
감광
방향족
갈
타측
셀룰
##구멍
스펙트
이루어질
구분
과제
슬라이드
52
반응기
마우스
저장부
준비
양태
좌표
연동
Cl
매트릭스
알킬기
쓰
폴리에틸렌
플라스틱
##고정
전위
유전체
다공
옥시
논리
질환
커패시터
연계
휘도
엘리
##클로로
라면
스캔
##VD
트레이
장비
접근
Ti
동물
확보
자신
44
...
용도
가진다
리스트
만족
mol
연구
생체
발열
단순
겟
배향
세그먼트
con
입사
상당
구매
스펙트럼
Pro
경계
##이서
열전
휠
##ure
전도성
##기능
빈
양자
이탈
흐르
배관
겔
분쇄
시퀀
사진
##결제
##운드
장애
핸드
크로마토
시각
##코올
##아릴
구체예
아울러
완전히
수학식
밀폐
지지대
85
랜
자외선
for
문헌
피롤
##ub
##본체
피드
직선
##화기
약제
스테이지
##ING
심볼
져
브로
다수개
락
통해서
저면
신뢰
##ist
데이타
가입자
레지스트
압출
달리
스페이서
##패드
##act
금형
##cc
시퀀스
밴드
##머지
변속
나머지
##파일
무수
운영
특이
##ity
##필터
다르
##포닐
부피
로봇
잠금
전구
도로
201
열처리
태그
당해
고속
인출
##반응
커플링
에테르
비치환
##리드
##EG
정해
##패턴
자석
모니터링
팔
충분히
방열
##공기
전사
탄화수소
##ase
##SI
텔
지속
pro
입구
##칼리
악
모양
플러그
유출
평면도
약물
사전
δ
라디
멤
텍
##yst
##프탈
옥소
들어
센싱
Ar
##MP
##금속
##비닐
드럼
루프
나타나
포화
학습
팬
제어신호
≤
크로마토그래피
99
반면
환원
##분해
자연
##보네이트
윤
피크
SE
턴
제제
##OH
02
할인
##ia
원소
##이소
##ON
박스
고압
가교
##레탄
드라이버
##and
아닌
서열번호
짧
오버
효소
레지스터
결제정보
지역
읽
일례
수율
육
올리
##oly
하강
##OM
프로브
가장자리
첫
##발생
##분리
피복
##ib
처럼
손실
OF
##크로
레버
##렇게
굴절
윈도우
니트
천연
##산염
정면
거쳐
##에테르
##ers
TF
##up
단지
메탄올
판매
식별자
##타이드
어려
트리플루오로
가속
#
군으
로우
시공
년
전후
거치
Li
결함
쿠
53
알칼리
##수성
MHz
61
체크
대안
##lu
실시간
##이즈
##수록
중계
대조
##ly
최근
Co
예방
응용
##회전
##생물
퀴
폴
냉장
##CT
호스트
응축
인한
-{
톨
##NT
밝
CR
그러므로
박리
협
교체
운반
SNS
저감
39
일본
##티오
쉬
미디어
월
화장
##포트
Re
전형
발포
PR
길이방향
##각형
AT
음식
선단
공동
##ND
블레이드
디코딩
##tr
증폭기
ch
불량
##라스
출구
##이싱
증기
전동
지지체
##다졸
탑재
##ene
밖
NO
브라켓
##스테
가정
##재료
제안
##성분
핸들
54
##방식
반경
중첩
##뉴클레오티드
46
##주파
ppm
분자량
##ive
아날
배면
자세
EL
질화
##IS
62
스피커
표적
##젝트
배지
워드
촬상
보유
현탁
색상
##전류
개념
DM
아날로그
산화막
눈
발효
수성
문서
여야
##크릴레이트
##작업
강화
바이러스
##레핀
기울
130
##레일
물체
프라이
##세싱
##BS
능력
컬럼
##라우
가해
병렬
##보드
열교환기
##뚜껑
64
상관
몇몇
시아
NR
특별히
글루
진단
항목
##설정
##lect
##부틸
72
##수료정보
치환기
구역
시그
암모
입력부
199
이렇게
황산
##미딘
개재
맵
듀
##하이드로
인하
매칭
##트리지
##ode
프로세싱
아암
항원
블럭
##페이트
스트립
##ack
인덱
촉진
TH
운전자
액정표시
에탄올
소형
##헥실
플레이
메트
##노드
##아제
다면
백색
##필름
하향
텔레
파형
폴리에스테르
분기
앞서
라우
송풍
##igh
아세트산
##단면
피드백
동영상
알고리
주로
##리스
적재
클러치
트랙
복원
워
공진
침전
##rans
섹션
##케이스
핵산
인버터
스크류
벗어나
곡선
충돌
##저장
벌
층간
##PC
증대
고형
얇
사이즈
##age
직렬
대표
##omp
##io
원통형
##레이션
메뉴
셀룰로
하중
인장
수용체
하드웨어
많이
전이
##AS
감시
사출
한쪽
##아세
##선택정보
적외선
설비
엑
전계
향해
de
웰
##OD
음향
라디칼
##ice
56
그래핀
첨가제
려
250
셋
표제
평탄
##케닐
##덕트
적당
삭
알고리즘
정밀
##용량
증류
##CC
갱
넘
RFID
##박스
씩
글리콜
고정부
권취
DB
조리
몰드
##원자
신속
##글리콜
여도
지칭
생성부
흑
거래
상향
염화
##메톡시
카트리지
나트륨
둘러
##ob
의존
티오
47
력
##루엔
회원
##카드
전해질
쇼
포맷
예비
##테이
시도
러
팩
mM
취득
##헤드
인코딩
래치
캐비
##채널
트래
##위기
RS
##서리
식품
수동
sp
액상
디코더
1000
살펴
사이드
잔기
인자
##감지
디스플레이부
##다이
압착
단편
유발
알코올
Cu
결합부
구획
입체
##관리
세로
디클로로
##IP
최초
tert
의도
##저항
##ys
CC
생물
##화제
종양
St
인덱스
도핑
이산화
##니트릴
##랭크
대부분
숫
##실리
브로모
자극
매개
너트
치수
리소
신장
Mg
로딩
CF
##사이클
토크
법
타이어
##전력
##연결
##ens
##AP
일반식
",
이루어져
양단
그런
wt
CPU
지그
##구동
##레지스트
스핀
차폐
101
##턴스
피라
어떠
##ium
착용
갱신
검출기
##ES
모서리
보이
',
편리
##이미드
단점
맞물
결제선택정보
자성
단독
이션
SC
타단
##아가
OH
실현
후보
03
배합
끼움
였으며
##미디어
선박
약학
시아노
III
위험
니켈
청소
##이동
근거
유저
양쪽
##대로
소음
프라이머
방사선
닫
알려져
##가락
직류
계측
슬러리
지나
유래
오브
##테이너
63
제형
마스터
헤더
격벽
##운동
실장
포토레지스트
셔
작성
##스프링
HP
##타늄
##베이어
49
##AG
고주파
변동
##데이트
변위
탄산
멀티미디어
##출원
##바이
ac
다층
프로필렌
단열
##프레
절삭
드라이브
헥산
##ult
이점
중앙부
편의
복잡
반전
도체
살균
발견
휴대폰
##시아네이트
##작용
수산화
통신부
불소
전구체
분위기
71
하이드로
만약
하단부
수송
##지막
캡슐
카르복
펀
내면
ph
원활
##활성제
미생물
##ial
Ph
##카르보닐
##청구
록
냉각수
##ff
끝단
진입
96
감싸
뚜껑
절감
##ystem
Ni
##스위치
펩티드
57
엘리먼트
플루오
##발광
##TP
속성
행해
오브젝트
98
대로
계좌
좁
검증
##탄소
##ast
열가
미러
##회로기판
외관
볼록
##iz
##형성
바인
케이싱
##IT
피리미딘
##yp
58
삭제
140
격자
기관
##입력
오프셋
플랫
배출구
##기간
파지
레이어
일면
가중
스캐
j
느
IL
##텐트
한다는
##문헌
180
##ox
통신망
##AL
표시장치
##IM
주차
안료
}-
작업자
스택
텍스트
규정
##렌치
페이스
헤테로아릴
축방향
##DD
체인
##프로필렌
절개
호출
평판
직교
하고
열가소
타임
##EM
현저
##횟수
외환
접하
계면활성제
바로
고장
##파이프
##래스
올리고
장소
PL
톨루엔
600
로터
에톡시
제약
왕
관점
날개
곳
명백
윤활
##비율
th
폴리펩티드
신경
업데이트
##orm
필터링
바이오
보드
##동작
완성
##대역
##ort
접점
슬리브
스토퍼
판별
폴리올
Con
센터
복합체
이유
##급정보
##erm
둘러싸
##두리
##메탄
PM
##라진
##터닝
##able
##SC
채용
개질
##벤조
요철
오목부
플래시
UV
수축
시그널
나선
바이어
원심
카운터
Fe
무게
패터닝
##II
##나사
θ
정공
##ication
##DM
건강
에피
인체
스퍼
마주
칼럼
78
##노이드
종이
소결
갭
플로우
##one
Zn
##ard
##볼트
##vice
SP
로직
카본
댐
발진
##니즘
변수
DR
담체
클램프
Me
가까
##ethyl
컴퓨팅
##포스
숫자
공구
##레버
SiO
마지막
##니아
그래픽
실란
하이브
오류
##거래
압전
##용액
##플렉
불포
##뱅킹
주면
##te
##시클
EP
알케닐
##산기
변환기
가시
Ga
낙
특허청구
AND
##변환
복귀
an
상단부
##ep
기둥
수명
극성
경과
유연
슬릿
66
원주
##전원
##이온
##광판
##에이블
영구
단축
프로판
명확
납
교류
04
블랙
뷰
퓨
ii
유니트
앵
후속
##TR
##실린더
약간
탭
주어
해상
피치
소켓
##ge
억제제
냉동
명령어
##펩타이드
하면
옥사
Cr
착탈
야기
##립자
##ver
전용
##ata
패스
수신부
연신
##ant
운용
LCD
음식물
81
한계
나타난
온라인
송출
피라졸
소성
##가공
프레스
##ri
이득
샘플링
슈
액티브
세기
신규
##SP
혈액
다리
Et
입출력
염색
##사항
##소드
하위
점도
WO
##uct
동적
송신기
스케일
일시
레이트
##측정
신체
82
##플루오
에이
파손
붕
저온
폐기
##던스
일어나
천공
였으나
##화성
공급부
TFT
노이즈
외면
출력부
검출부
펠
싱
온수
일부분
SD
시프트
착색
##디스크
+)
세션
플렉
감염
##조건
컨베이어
형광체
##실리콘
적색
어렵
##av
##촉매
정해진
##ass
역시
함유량
컨버터
회절
냉장고
보내
선별
융합
스퍼터
저해
트렌치
합성수지
리브
##ram
아연
견고
아세틸
스타
로컬
매립
마그네슘
##휘발
변이
##웨이
항상
TV
발신자
CN
멤버
화살
92
페놀
##지만
-[(
릴레이
카르복실산
간편
이웃
##ition
am
알려진
톱
헥사
줄일
바인더
정화
##간격
청색
##효율
아르
프로파일
68
그대로
스케줄
테두리
##사각
비하
스테이션
BL
구성도
브러
##피스
퇴
##노즐
전단
##ax
##마이드
클로라이드
일으
대칭
탐색
##ment
바이어스
±
MC
SR
관심
눌
그라
캐패시터
널
광섬유
##준다
수치
59
추적
##피던스
테트라히드로
일련
잔류물
67
밑
수신자
부직
##검출
##부위
백라이트
트래픽
다공성
73
##대상
PS
떨어지
Th
피페리딘
복사
보존
압연
강판
트리플루오로메틸
펌
아이템
궤
랜덤
102
91
지방족
머리
응력
시청
##녹시
액정표시장치
겹
##ill
콘트
카테
통지
전파
염료
##맨드
##록산
손가락
미끄
##ace
응집
인쇄회로기판
##성형
권선
폴리우
##시클로
형질
DE
유선
PCR
Mn
나프
##ile
초래
##조합
##CO
##가이드
AD
정류
파악
다가
co
횟수
클록
선회
화살표
왕복
터널
직물
중간체
의료
몸체부
##부호
벤젠
양면
난방
헵
기입
Ca
나아가
min
미립자
하방
dis
상판
EC
관통공
##실란
텔레비
DL
##스티
97
표지
증발기
활물질
하이브리드
산업
##rom
수용부
OR
##all
쳐
본딩
사이트
트라이
음료
Bi
림
임피던스
ᆞ
캐소드
##접촉
가용
착신
##버튼
태양전지
제동
94
##레벨
##표면
##폰산
분무
##GF
Chem
용제
CL
녹색
##ence
순위
비아
전선
##전달
집합
좀
리셋
적응
규칙
저급
티타늄
모노머
##est
맞춤
의거
경보
본문
귀
##로우
발생기
##시키
2000
74
##TE
붙
누름
환형
##이크
FOR
발광소자
##이미
급수
GPS
으면서
특허청구범위
##SO
TR
스티렌
실링
할인정보
경사면
필수
##art
PE
미치
실외
내열
균등
대조군
페이스트
초점
매핑
로그
교정
##에이트
##ator
76
얼굴
프린터
살펴보
셀룰로오스
발명자
애노드
서브프레임
“
##ethod
기법
히트
기저
단어
##르산
##캐스트
마크
밸
##레기
소요
사각
Ser
폴리우레탄
Sc
시클로알킬
현탁액
폴리비닐
인산
the
프린트
93
##다이오드
인덕
불포화
poly
##하우징
체적
카르보닐
임계값
회전자
이소프로필
일체형
플랫폼
대상물
카르복실
비정
찾
아스
구축
뇌
q
시뮬
잡음
CS
공보
혈관
카세트
지도
축적
##레노이드
골프
Tr
”
##ress
리모
아이콘
믹
Δ
디스플레
##런스
분획
예상
재조합
IV
##타민
##페놀
렌
##전자
성질
행렬
약제학
##ex
불활성
관리자
롭
청구범위
질화물
##yn
달라
순수
##래킷
##등록
소모
클립
유무
가수
교통
84
제어장치
PT
08
##드시
220
내벽
줄이
##놀린
칼슘
##화학
가맹
굴곡
06
옵
##부품
블루
메탈
솔레노이드
##OA
TC
##성질
위성
##클로라이드
폴리프로필렌
##pt
하지만
##trol
신축
환급정보
##RNA
83
벤즈
유의
가져
전반
PP
##ign
출발
디히드로
160
집적
스토리지
감속
더욱이
타이머
반드시
인에이블
지면
수광
아크릴산
결속
88
리소스
##자인
왜
대비
원리
경제
배경
아미드
목록
##ak
선행
CM
차체
##ron
족
IT
조제
포지
규소
경도
대역폭
라이트
민
메탄
210
PO
가맹점
분지
팁
선단부
")
모션
구동모터
생기
균주
##화합물
##래그
칭
##디닐
부직포
RNA
상온
칼라
86
카운트
No
지지부재
##덴서
컵
##기관
Ag
누설
허브
휘발
덕트
상위
##배출
적절히
##enc
터미
##US
##수수료정보
토너
침투
맞추
관능
홍
보장
##제어부
건물
##yc
##조립
105
77
편차
매니
##결제정보
돌연
라도
였을
관절
앵커
##퍼레이터
투영
##공보
려는
상방
니트로
예약
걸리
##ock
가격
튜
습도
##카보네이트
반응물
PV
트리메틸
흘
소거
##미경
부식
##츄에이터
출입
합계
##포름
더미
근거리
##추에이터
##다리
다운로드
씨
풀리
##일러
방수
##아웃
시계
더불
캐비티
침지
##ire
도광판
페이
##코일
원인
Ig
ex
##ight
탈수
주요부분
여서
채워
CT
comp
--
##ated
마커
사실
정합
아웃
불편
IN
##전체
##페이지
##yd
##UT
곤
든
fl
지방산
디자인
##커스
dd
Å
인돌
건축
승인
전부
##블럭
인입
안출
받침대
PCB
성막
형식
사고
복조
나타낼
##없이
클러스터
TM
텅
규격
07
##주입
##uc
##패스
##스텐
헬
##어난
간접
개체
비상
중단
멜
##FC
모르
##ann
##리아
스프
γ
단차
##배선
높일
##ork
69
정면도
맥
##절연
to
##SD
경유
##이디
비정질
본체부
##효소
집중
정량
돌연변
알킬렌
디옥
터빈
DMS
바퀴
##환경
조향
ROM
기부
당량
해소
컨테이너
올레핀
보호막
내경
##ric
Le
##성질체
##인터
해진다
##산화물
편향
점착제
디에틸
된다는
주문
##int
적정
##방전
스퍼터링
##록실
##OC
기인
과도
장식
보여준다
##접속
졸
##EL
큐
800
지문
수용성
폴리이미드
87
확실
바깥
질량부
알파
슬라이더
내용물
##end
핸드오
##변화
토록
사업자
##사체
##비율정보
배기가스
파일럿
##전환
시일
신발
변환부
킬
##분말
프로그래
대형
생물학
열화
BS
콘덴서
적층체
증권
sh
SW
다만
부유
편광판
스팀
MET
빠르
강성
알콜
An
발전기
Sn
trans
pl
한쌍
##fer
비드
염소
내측면
듯
이내
인공
널리
장력
필라
##금액
##기술
액추에이터
특허문헌
제조예
흔
기대
지주
신청
호스
검지
시약
가중치
001
##메일
사항
##펠러
해상도
실제로
바이트
후크
##설치
강한
##ype
DMSO
나노입자
이용자
플레이어
MAC
먼지
곱
09
111
조인트
경향
주름
마모
감지부
조도
편집
##주파수
##로이드
기포
공급원
암모늄
거울
구하
너무
도출
이런
관해
변형예
##ccess
자리
캔
CDCl
측부
아서
HPLC
파티
GP
생각
Inter
요지
질병
##압력
바코드
뒷
카르복시
프로피
나누
외경
112
왔
##휘발성
##데히드
파괴
수술
언어
##건조
진폭
안쪽
##전송
간극
키워드
스마트폰
대전
공간부
As
틸
들어가
셔터
클램
도파
주석
전자기
지지판
79
-((
벽면
구별
강하
IR
전해액
##산물
전문
역방향
게이트웨이
이동국
Mo
커맨드
##프로판
##모일
단락
##마스크
마감
##간드
인코더
완화
전진
양상
104
글리세
계조
최상
이미다졸
##특성
탈착
회전력
##처리부
엔드
변성
AR
론
경사지
##계수
터미널
강제
축소
고정부재
섹터
MOS
직사각
##게이트
유해
##작동
Sp
89
Ac
습식
피막
ON
##센트
행할
밀리
파우
##순환
RE
sc
##뱅크
##ie
선정
##설비
##ayer
rpm
##form
폰
비밀
##분류
##AD
쉘
관통홀
랙
복호화
트리거
스테인
리간드
임시
탄성부재
##헥산
무선통신
항균
굽
차례
##커니즘
HCl
구동축
##브라켓
용출
메일
제어방법
##our
##리닝
환류
125
프론
소비자
겸
자기장
목적지
감광성
다이아
106
줌
댐퍼
그런데
움직이
##메이트
늘
##계좌
매크로
USB
##젝터
##AB
아세토
통공
##per
도전막
염증
METH
on
태양광
##NB
##아세테이트
현장
디이소
')
탐지
몸
##서트
##구조물
명칭
##und
유성
##구간
리어
λ
이산화탄소
##화면
##쉽정보
##스팅
##배관
인터페이스부
몰딩
경고
메쉬
걸림턱
##처리장치
곡면
화재
이면
##자석
중복
기상
텅스텐
회전수
후단
확률
시뮬레이션
방해
##레드
툴
쓰레기
수반
원래
##ory
뉴클레오티드
##비용
책
##ite
내구
교환기
METHOD
##과정
차지
플래그
배리어
##투스
다이어
##전기
전개
엘이디
지수
보통
##LE
##olog
##댑터
플라스크
주어진
듯이
##벤질
마운
br
빗
메틸렌
혈청
기질
THF
가수분해
##어지
스크랩
’
편심
##mun
##용매
##arb
##유로
음악
##ION
크로스
리더
##통로
연장부
비례
프론트
연료전지
액츄에이터
닐
차광
통계
시켜서
틈
입수
이르
##ating
요부
리세스
##분석
일측면
메커니즘
RT
증식
반영
##트랜
놀
신용
활동
우레탄
캐시
가입
가요
알루미나
보수
절대
슬라
워크
수위
##실록산
700
경구
RAM
DP
콤
그러면
TS
##성물
##벤젠
뉴
금액
컨택
원단
##시각
동결
##yr
이식
인서트
벽체
패킹
폴리아
##마이
##더링
선호
기공
그렇
섭
잔여
브래킷
기록매체
230
##암모
벨
출사
누적
가까운
워터
라벨
접속부
##나무
##ain
종단
클램핑
※
##OAc
면도
성공
##사이트
폴리실리콘
우려
폴리아미드
##pp
##se
뛰
추천
##스트림
어댑터
##tt
카바
지하
대상체
WL
##타디
##cess
##IR
산란
크랭크
기울기
상당히
##코어
디클로로메탄
##anc
##유리
아크
변하
양성
상용
##전트
AS
##포네이트
스틸
일단부
고전압
전화기
CDR
아릴기
LD
고정자
시동
하류
테트라하이드로
##다가
집진
→
##칼슘
연결부재
관하
엠
##GA
키보드
##10
뱅크
##ith
황색
암모니아
쿠션
부근
알림
아실
올려
범주
##베이터
효능
매질
보험
삽입부
발생부
세금
구부
103
순간
##흡수
##ater
낙하
##리티
만일
Res
inter
왜곡
등급
##권정보
##릭터
주형
픽업
프로모터
주조
젤
##암모늄
##스크린
##니언
##ug
En
##50
빠른
글루코
만곡
과립
##보호
##서비스
빌
se
전원공급
##브레인
막대
수중
acid
##ime
옥사이드
영양
라미
##icro
System
##ech
횡방향
게다가
Dis
##피리딘
줄기
##랜드
##트로
##IF
도모
핑
베이
오픈
키트
HT
##프탈렌
지름
펩타이드
상수
무선단말
##받이
프리즘
PH
개시제
##ber
or
유기물
칸
##홀더
회전가능
나오
EtOAc
한국
재배
##ction
함침
##로스
##증기
머신
피페라진
프로그래밍
디플루오로
##키닐
펌핑
##CCH
회로도
접촉부
플립
템
OL
##방성
IE
에멀
최소한
블루투스
생리
관리부
특수
##ud
##푸란
중심부
텔레비전
세탁기
##도어
흡기
시판
누르
##제품
염수
##레이브
캐릭터
외장
cell
크롬
띠
지르
이메일
##스티렌
##ance
##민국
보행
##ry
res
에이전트
디페닐
대한민국
의사
폐기물
신호선
울
비교기
응축기
봉지
##스처
##eld
차동
용지
스캐닝
오차
오존
멤브레인
동등
##이미다졸
내주
도관
De
권리
탄력
비대
파쇄
환상
사슬
비트라인
광선
티아졸
시멘트
##제거
페녹시
미끄럼
##마그네
MT
영상신호
바이패스
메타크릴
전분
밝기
콘택트
부가세
국부
면은
반응식
기설정
중심축
빨
##받침
240
록킹
페달
레인
##IG
Pl
종방향
밤
기호
입경
타원
170
소오
버너
결합제
내성
핫
직쇄
##에톡시
마그네트
그림
수수료정보
준다
##티티
##IV
히드로
##적외선
자전
가리
PA
구속
분산액
##여금
AL
##바디
이종
IF
이차
드릴
탑승
##레프탈
위상차
코너
도구
부족
&
도료
##화상
단결정
감쇠
##20
맨
CVD
토출구
ED
##ane
분출
하여금
난연
무수물
##EP
스파
##요청
##린다
텐
점차
탄성력
베타
##ital
문턱
직각
안티
출력신호
인치
업링크
MD
싱크
SS
투여량
##바이러스
##차량
분광
pre
로울러
익
염산
순도
##..
안경
전자기기
##동기
분리막
액화
##차단
##브러
싸
##마그네슘
구형
오리
피롤리딘
##ary
부톡시
그리드
대화
##라듐
공극
##루브
##UR
보충
환전
##펜틸
선반
김
##렉터
모바일단말기
스프레이
DS
톱니
오븐
##OL
##칼륨
CA
##압기
##중합체
전처리
쇄
시설
##테이블
운행
깨
거친
삽입홈
##폴리머
테이퍼
현미경
OC
MPa
융점
350
세퍼레이터
전자파
불균
배제
##프로세서
비롯
##술포닐
##work
퓨즈
모식
##성능
시야
취하
엘리베이터
비활성
피하
##ole
펜타
양방향
##플릿
세부
공기조
인덕터
결국
행한다
121
숙주
균형
주목
HD
엔트리
작아
ITO
이동하
보일러
##날개
지향
집광
버전
흡인
필라멘트
##안내
측면도
##net
포집
틀
테레프탈
원하
구입
##oll
광학계
나란
기밀
백금
##old
##코팅
유통
ad
UR
198
알키닐
포스페이트
션
멸
자형
Un
검정
출력단
축선
amp
질화막
일으키
퍼지
Ad
sec
기여
만든
##특허공보
원심분리
##라우드
피니언
고정구
충족
Trans
##스토
발행
발휘
바탕
##ma
범프
옵션
TE
##절연막
##스테인
조각
라이너
건식
바늘
추진
이하인
삽
판독가능
통기
이제
##반사
아자
재화
소화
##시각정보
기하
취급
절연체
##이송
Ne
##나노
핸드오버
LTE
지상
PET
철근
서보
포스트
ES
맛
얼음
##에너지
##ath
##ting
##여부
송수신시각정보
어닐
돌연변이
처음
##전히
투사
교대
감마
회전체
ATM
##추출
tr
모습
친수성
##아크릴레이트
맞닿
##푸집
##ond
##play
Ta
Br
끼워져
변속기
상류
참고사항
##ix
소수성
판재
##유체
##igital
선로
낚
un
SEQ
캘
복제
##TS
별개
급격
##데실
메타크릴레이트
최초출원
세균
##메타
컷
폴리올레핀
실용
수조
디메틸아미노
##폴드
극대
어려운
폐수
이름
넥
열전도
RR
능동
필러
이론
##기둥
파이
저부
bl
##아세트
졌
##ind
RP
자료
디하이드로
Gl
저압
Ra
##오프
인데
SL
##단위
도움
리포
용역
구동력
Fc
희생
##),
FR
정정
OFDM
녹화
순서도
사이클로알킬
근방
##OP
에어백
##런저
계열
##ML
카르바
##IL
섬
비타민
라우팅
##디올
Pd
전열
외곽
SA
소리
슬립
##알루미
수거
양단부
di
응고
흘러
Se
##카르복실산
##조립체
##경로
##장비
간주
브러시
체중
##트랜지스터
TP
펄
충진
콘택홀
완충액
숙성
##etwork
##GB
정착
ra
##발트
##ov
##osition
사각형
민감
스케줄링
맵핑
##투과
양이온
화장품
경량
스트리
광전
영구자석
본질
유속
다량
센서부
상보
상업
AA
클래스
변이체
##중합
가이드부
탁
##규소
치아
##40
폴리카보네이트
인스
톤
##팩트
감도
사용량
장벽
모뎀
122
PU
펼
습윤
오른
상한
외피
##두께
##관계
중지
중량비
흑연
지질
그린
전혀
##니어
카테고리
108
여전히
정전기
포유
불리
국소
CDMA
PW
le
가시광
##분류정보
##MC
나사산
리프트
인슐
정밀도
고정판
##ink
균열
팔라듐
비록
아르곤
회로부
##케이블
DVD
##지지대
##emory
참여
##ydro
골격
카복실산
걸이
##현상
쇼핑
##사졸
##이브
논의
아세톤
해수
눌러
회로기판
핑거
<
중쇄
SN
로프
중성
Sh
커지
박테
클릭
##어러
간략
##ular
폼
나프틸
다운링크
##성체
##ore
플라스미드
고도
##유지
##경화성
플런저
im
커팅
예의
곤란
##왁스
밝혀
둔
##옥사이드
운송
서서
##aa
##ency
～
되돌
Vo
##나제
##피롤
즉시
123
화물
내려
왼
종동
사료
사운드
관로
알람
정극
서서히
당업
##시블
Poly
공급관
##mer
부극
##수용
스트로
VL
스트레스
at
##알데히드
켜
점등
대량
멤버쉽정보
멀티플렉
빈도
프탈
®
올리고머
실패
##ection
픽처
공조
량
떨어져
시스
##lex
##시버
##ower
커터
실험예
알리
MB
가소
석출
시클로헥실
##조정
이음
드레스
##카보닐
멈
실정
정책
세팅
요오드
아야
##타디엔
##센스
그래서
앱
아도
냉기
피사체
잠재
원판
흡입구
불과
MR
반송파
sub
콜라
린
파트
Access
##텍스트
불구
구매자
오토
##ous
##TA
요인
연성
고형분
줄어
중화
##후군
##상황
꺼
Mult
함몰
-{[
젖
##메틸렌
PB
글라스
##앰프
투과율
type
절환
에서부터
냄
홀로
##cr
##리덴
도장
?
##충전
##ok
갖춘
ro
꼬
하수
##분사
복구
단리
라디오
450
멸균
ME
조회
잔사
시편
##드럼
##바닥
방문
단순히
ar
이력
계통
나타났
치환체
구배
##ach
도중
##형제
므로서
포스포
요홈
발급
각기
푸시
스탠
돌기부
##도금
칼륨
압입
별로
급전
Im
급속
발산
스트링
투광
낮추
##알루미늄
포인터
##샤프트
##DMA
평활
한다고
키패드
310
ESI
그루브
균질
##ield
격리
공기조화기
외벽
미분
Comp
플로팅
므로써
조임
##리오
절첩
##구성
접촉면
묘
포커스
OLED
GL
글래스
스크롤
스테아
감안
위쪽
##공개
elect
##킨다
증진
경화제
##gg
메모리부
담당
##아진
자전거
경사진
Zr
##코늄
##부착
퇴적
타격
식별정보
계량
##ang
##문서
택
VH
비행
이소시아네이트
기화
잉크젯
보고
##에틸아민
한다면
불균일
점수
최고
훨
##연료
코발트
ind
Ex
목재
MH
나프탈렌
선물
IgG
근육
잔존
프레
예열
##리돈
부탄
거푸집
##스타
DMF
서빙
VC
놓여
##운데
패치
어닐링
##30
당뇨
용적
열풍
##라우저
경질
##발전
cl
스톱
##실릴
―
증상
보빈
왁스
호퍼
알콕시기
엔티티
인용
저장탱크
서술
수직방향
아래쪽
##런트
훨씬
그립
##유니트
정규
##가루
u
##xide
##태양
본문정보
Sci
##니스
##EN
아세토니트릴
기름
##FET
##도면
체결부
이방성
저항성
볼륨
##enyl
시드
##증폭
##유입
포름
헤테로사이클
헥실
공압
##ology
명시
발광부
결합홈
윗
치료제
분비
저렴
유효량
115
돕
광디스크
플루오로페닐
구동장치
금속판
가산
처리장치
토양
근처
맞물리
##작물
투자
SF
통전
##광고
가용성
##annel
##face
UL
음원
저장매체
##ppl
원가
엘라스
대사
장착부
##뉴클레오타이드
NMOS
##렌지
점검
기동
풍력
종종
일자
##브러리
Elect
ACK
가령
판넬
##내용
요약
##호스
임상
빠져
슬레이브
일예
##rop
PEG
900
티탄
방사상
트리스
##지지부
He
부정
##펀트
##패시턴스
규제
OP
성형체
##메시지
지닌
DT
하프
##산나트륨
##of
금속막
method
탄성체
알릴
축합
라이브러리
system
카보네이트
양측면
백신
서명
병원
##금형
##제어장치
믹서
관측
연결구
드레인
##부하
평형
의약
대면
디지탈
com
약액
만드
Pa
리턴
포켓
브롬
다공질
##시스
적하
##릿지
메시
증후군
bar
콘트롤
서포트
개량
##토머
볼록부
도막
HC
블로그
표기
채취
두꺼
혼입
세포주
OS
과금
제조장치
114
##60
깔
몰리브
수증기
밤새
##화부
도펀트
##ue
주성분
갖추
지폐
연결관
320
Pt
이차전지
##ost
리프
독성
접합부
타일
자명
가닥
정확히
##란트
##케이트
##설포닐
제로
해질
##ord
지불
아크릴로
##ignal
##ME
소량
##굴절
증류수
폴리옥시
펜틸
##ey
토대
블로
인트
Control
둥
##화소
광축
변압기
미소
엄
유기발광
##식별
외기
##마크
레이아웃
박테리아
##상품
의자
플렉시블
먹
환기
##irc
욕
##--
##알코올
림프
아미노기
블렌
카복
마이컴
107
홈부
헤테로시클
##너트
집전체
기업
MeOH
쌀
##co
다단
예정
용리
PG
평균값
황토
악취
##iss
숙련
스윙
PBS
마개
트리아졸
장시간
수납부
인듐
HS
라우터
##ature
##사용
압박
색소
##몬드
##피페
##테이프
낸
임펠러
옮
단말장치
워드라인
관계없이
연소실
침전물
경쇄
상품명
브로드
프린팅
AV
후진
##러운
##뱅킹정보
##ual
스핀들
TN
아미
산물
동축
비휘발성
광이
비수
131
##FT
모발
테트라메틸
##EC
SM
113
와이퍼
On
마이크로프로세서
RA
##소재
##III
회복
128
##edia
미터
##가열
앤
MA
측정부
범용
col
제조공정
누출
URL
##att
현저히
히드록실
도트
에멀젼
간단히
반원
화장료
요동
상자
##서블
지령
의류
바깥쪽
소듐
권한
비틀
##시딜
생활
탄화수소기
수요
원호
OTP
단열재
분산제
##생성
복소
##출부
mod
##마이신
eNB
비콘
##라닌
세제
GS
##조직
수평방향
고서
흔들
지니
발광다이오드
스테이터
##체결
디메톡시
공중합
##oint
업무
##eter
EM
길항
절반
원적외선
선체
Wi
퀴놀린
장기간
##NG
교반기
덜
폴리에테르
견인
##함수
로크
##LA
런
조작부
동력전달
시리
LP
##ies
##리디닐
##조성물
##인자
마이크로파
off
데크
가짐
셀룰러
이동가능
겸용
##ust
뼈
수면
실리카겔
그램
훈
실시태양
압출기
엣
에어로
##변형
저수
내연
걸림부
Method
##DNA
지금
##ym
##raph
자력
##승인
##나이트
스티어링
어긋
갈수록
##일기
인슐린
임플
써
MPEG
△
SH
##걸이
피리딜
적분
##표시장치
DCM
국제
##IB
오르
##론산
헤드부
엘라스토머
##강판
##덱스트
##제공
##지점
##아연
쿠폰
소유
흑색
##전위
륜
##올라이트
글로
안착부
반사판
터치스크린
설명도
송신부
device
등가
첨부도면
mult
노트
갑
벌크
기준값
디아민
몸통
Ind
랩
##명령
클로로포름
layer
중계기
us
오리피스
부형제
낚시
관능기
SY
광범위
증강
섭취
휨
아닐
천장
APP
일회
##atus
##증착
메타데이터
##ier
작용기
##합성
컨트롤
벤딩
판상
##시드
센스
내열성
생존
UI
이성질체
지표
부합
##TRU
요금
스터
바꾸
클라우드
듀티
제스처
##시험
##재질
끼리
페라이트
컬러필터
관해서
비페닐
전동기
이체
심장
##arm
부드
외형
아니하
##검사
##어짐
싸이
##티아졸
회피
활성제
피로
어려움
##폴린
##oth
그라운드
일정간격
교량
단속
펀드
충전제
STA
고농
플렉서블
AB
는다는
Am
채택
##프로그램
##80
자성체
배향막
접종
엑스
데이터선
Leu
SU
세정액
펀치
뿌
손쉽
궤도
브러쉬
Cell
##덮개
답
장기
##확산
바닥부
폴리뉴클레오티드
상향링크
허리
Pr
결착
Gly
전자부품
선택부
요크
플라이
이동체
매니폴드
대체로
##러지
‘
해양
블랭크
대출
금융거래
132
VS
겹쳐
벤조일
제올라이트
몰리브덴
임플란트
번역
##ose
테레프탈레이트
%(
##필드
곡률
케톤
##라틴
##로프
##렉트
##렌기
공진기
이동부
en
오른쪽
인터럽
커서
빙
클로로페닐
대장
호흡
콘텐트
부상
윤곽
측정값
##atic
건조기
대물
슬라이스
혼합기
분화
왼쪽
802
송풍기
클래
##자기
입력단
전원부
쇼트
엣지
OD
계정
OFF
##전도
##운전
수산기
외력
옆
잇
흡수성
땜
##프린
커플러
##글로
석영
|
mA
하판
##인식
렌더링
##GC
리프레
감광막
삼각
흡광
허가
##바퀴
연질
Ba
승하
Data
걸려
브라우저
id
반경방향
뻗
GaN
Au
디아
IEE
고형물
세금정보
나타냈
거칠
다이아몬드
적가
틈새
무늬
비대칭
##감지센서
is
끌
##온산
##래브
부티
부동
IEEE
생성기
접착력
##70
걸쳐서
중력
##구매
360
##ule
듀얼
재의
제어수단
고착
송금
ms
횡단면
쿼
##시키기
상대방
된다면
SEM
전자석
크랙
조절부
NFC
##조작
다소
무인
##경화
일방향
##디아졸
회전판
팽
원자로
담지
순방향
조립식
이루어짐
심지
사용시
못한
##그룹
짝
최대한
he
TiO
##Ga
비중
파우더
레그
##알콕시
##러스트
산화제
발열체
지르코늄
마이크로폰
모재
##ement
거치대
저항값
계단
VP
가치
##mit
강관
##으며
PRO
실내기
담배
##텍스
질의
망간
소위
##라제
방치
스캐너
도파관
상층
##ps
##로지
바닥판
정맥
TD
가교제
##echn
할로알킬
실릴
부타디엔
발진기
부가세정보
땜납
스탬
##사시
ne
##매트
>
스트리밍
##고무
잎
보스
매설
AM
템플릿
Or
규모
탄소나노
##레스테
샤워
절곡부
예금
제어함
창문
박막트랜지스터
개월
건설
WTRU
노치
아이디
HA
타단부
압축공기
control
124
##onal
폴리스티렌
##산소
쿨
가습
파티션
′
##주기
붕소
폴더
##NC
역류
천정
보온
집단
##나졸
변조기
몰비
플랜지부
##시설
극복
방위
출하
가운데
SMS
##신안
-[-
135
로킹
190
MIM
##파이트
iii
화소전극
PWM
##세지
##자성
위함
##퀴놀린
##플러
게시
IS
스럽
브리지
호환
리모콘
비접촉
자가
입력신호
인터리
세척수
be
페닐기
플럭
##CP
점유
버스트
카르복실레이트
찌
##str
온도센서
브릿지
웨브
침입
결정부
신용카드
빼
##인증
SB
번거
##are
레티
아이소
##luor
질산
요법
##테이션
##머니
+,
##결제비율정보
Val
##합금
웹페이지
##GT
배출관
메카
커피
옥사졸
피처리
##PE
##11
##25
##ution
하한
국한
고가
합성예
109
비게
##OT
부력
발판
경사각
FL
##른다
005
##ilic
혈장
과산화
재현
다이메틸
스테인레스
트랩
##사지
디이소시아네이트
타깃
##게이션
HE
116
게놈
##레트
립
##르마
-(-
##toc
튜너
##레산
CLK
##해제
##오염
##ization
외주연
##구동부
마스
확립
##obile
판매자
꼭
##퍼런스
##이성질체
할지
##uit
가의
삼각형
단층
인터럽트
행동
열전달
PMOS
##레닐
열경화성
##gan
언더
##져서
##ision
PDA
일회용
재순환
cont
타설
칫
문맥
자화
종자
VR
심도
##제한
당뇨병
반대측
전기화학
연산부
수상
구강
덴
##안정
배송
소셜
불가
##사이클로
플래쉬
판단부
배당
백업
분리기
품
TCP
도전체
##ICE
충방전
##모양
PDP
vol
통증
무색
절취
Chemical
세탁물
쉬프트
VI
절연성
다발
NC
맨홀
덧
기억부
##vel
구인
재활
상표
블로그정보
##sc
##requ
증명
전기장
부면
스풀
윤활제
보어
##셔닝
##동안
##염수
메톡시페닐
##기록
체결공
ser
##own
HF
수식
스위칭부
##oad
##인다
경쟁
전자빔
str
광량
##니다
승하강
가이드레일
##케이터
Ala
걸림돌기
달라질
메틸페닐
##osph
공명
액정패널
차선
##져야
##서열
##ATA
기하학
RGB
장면
변화량
척추
반죽
반도체막
발포체
히팅
계획
CB
청소기
##밀도
유화
##gram
레이저광
평평
하향링크
fil
강재
##ash
##개시
##에닐
산출부
nM
링커
Inc
뛰어난
##ere
시나
개개
절약
##가니
락토
샌
웹사이트
비트스트림
주입구
##ource
주사선
2004
유아
##ark
process
가이드홈
화상형성
##잭션
밸런스
##ility
마킹
승객
%).
폴리펩타이드
##토프
구면
콩
지반
광도
##requency
페이징
##어날
##아세트산
접착성
뚫
라운드
박판
CON
##착부
점성
베인
##트산
끈
Fl
CSI
국내
##출구
##히터
낭
크림
풍부
##ics
그레이
일차
섀
장애물
DEV
살펴본
에피택
data
이행
입증
펠릿
맞물림
피봇
##tocol
트랜잭션
작아지
##어진
##캅토
수량
이송부
저지
Digital
에어컨
강력
2005
개소
램
약품
인큐
공격
저장소
TT
설정부
층간절연막
##케톤
##94
LS
음성신호
이동통신단말기
브라
희석제
긴급
돼
##ler
포르
창업
로그인
##디아민
Ge
관형
FP
##AND
원수
포획
수화물
##판넬
섞
결합공
슬래그
##ich
술포닐
검토
다를
Te
시기
Com
편평
단면적
냄새
씰
캡쳐
차분
단단
테르
위생
후드
PN
분배기
##반송
체류
줄여
맞춰
미연
카보닐
##프램
Met
교육
회선
반응액
##에탄올
##무리
명명
에미터
Lys
##불린
정신
콜레스테
효모
성형품
##gen
##버스
조명장치
냉수
열팽창
202
투과성
친환경
활성탄
BP
ed
gro
HM
##토리
ag
Ω
지닐
이어폰
윤활유
습기
전장
모델링
통보
정리
##orr
한지
자속
RB
대두
부산물
##다조
스플
내역
납땜
HR
##lor
지지프레임
##알킬기
김치
다결정
심벌
공개특허공보
단턱
로터리
모세
##formation
회사
메틸기
플럭스
pp
슬래브
##ish
당겨
mRNA
도가니
##용성
베드
메타크릴산
도착
Id
보강재
노브
##공급부
티오펜
측쇄
트리페닐
보완
접수
유니
연삭
추출부
##put
기준전압
광대역
유사체
냉방
옥틸
##앰블
현실
디올
아조
다이얼
포지티브
광고주
분체
##ACK
고정홈
점선
실리사이드
칫솔
##로딩
##itch
##스아미드
트립
##사진
클론
##ycl
Di
문장
후퇴
흙
아우
첫째
스포
탄소나노튜브
##산화막
에스터
##구조체
화염
채우
Bio
CCD
시나리오
##라지
걸림홈
##OB
수산화나트륨
##셀룰
나일
스페이스
아주
##amp
콜라겐
##az
##리스트
클리닝
BC
CMP
스탠드
##지부
감겨
재전송
##lement
가속도
패리티
멀티플렉서
토큰
전도체
##르몬
웜
와셔
리본
측방
##ARAT
330
dB
전자문서
##21
##90
플루오르
모래
수표
환산
메카니즘
경사부
도통
410
out
가드
고정핀
##duct
건축물
##분자량
##업체
time
##75
주의
사다리
장입
##enz
중공부
##크기
칸막
시클로헥산
표시패널
차단기
출원인
up
텐션
폭방향
냉장실
잭
구가
배양액
비스페놀
거동
##중심
닿
내외
하천
리소그래피
깨끗
카르보
133
per
##보강
나타냄
삽입공
##회사
은행
##Pa
우리
Network
pr
을수록
원추
지능
산성
##페녹시
자계
길항제
분진
벤질옥시
##ick
##전계
레퍼런스
세워
펼쳐
##피리
친화
비틀림
봉합
뿌리
오염물질
260
##카인
##port
손잡이부
Ir
다이어그램
고정수단
권리범위
리니어
라미네이트
두꺼운
줄어들
##비트
##시계
##루션
스테인리스
측판
패스워드
나일론
주식
탄소원자
##less
##아마이드
배설
앰프
든지
##방사
Arg
형질전환
크레인
qu
FET
퍼센트
API
##로틀
##결합부
칼날
프로테
방음
만성
##rame
##arbon
술폰
멀티캐스트
+.
경험
코트
##이식
DRAM
##페논
다각형
##ircuit
버리
침착
탈취
열거
등받이
##원료
육안
나사부
시술
빗물
##저장정보
##unction
하층
측정치
측정장치
나타난다
스폿
피검
##ppar
실드
행정
Sr
디스펜
베이스부
에스
주사기
Mod
올라
##발명
힌지축
수리
트리에틸아민
굽힘
가소제
착색제
ps
좌우측
고정장치
GC
cr
놓이
미국특허
ECU
Bl
NP
주제
개설
분명
ng
둥근
홀딩
2003
종속
올리고뉴클레오티드
##ank
EV
열간
끊
가온
이어지
헤어
MgSO
##연산
##냉각
묶
퀴놀
옹
직접세
간접세
용역정보
##ame
유성기어
쌓
##면체
##tra
ass
RC
고강
스케쥴
요건
Gen
##urr
공급장치
##켜서
처리기
합계액
##단백질
엠보
##질환
##마모
알카
뱅킹
상하방향
복권정보
랄
금융수수료정보
##변수
후단부
##스펜
횡단
스트라이
속한
##pparatus
act
##oS
멀리
치합
전자상
셀룰로스
행해진다
십
line
커패시턴스
오히
##파장
루틴
종결
##ECT
기류
##GS
제공부
기생
가전
릴리
광신호
cDNA
오히려
참조부호
포도
아직
PI
터보
연락
무방
측정기
최대값
펀드정보
cc
##리닐
창업정보
회전부
어린
강유
##상표
쉬운
기부정보
세대
열분해
VDD
공기압
실측
2006
HB
정적
랜드
거쳐서
TA
대폭
폭발
절개부
마운트
AF
업체
투입구
Pb
공법
폴리에
2002
134
떨어진
튀
편광자
메세지
##원소
##포름아미드
게이지
모식도
굴착
##eng
##보수
프리앰블
전자상거래
##지방
중개
gl
CMOS
##충격
져서
Nb
USA
이동식
126
##르마늄
##ulf
훈련
결점
케미
##어남
필터부
면으
컨텐트
##브로
저속
에어로졸
##라닐
DV
체결부재
##교환기
등록상표
이미다조
##ATION
NaOH
IM
근사
사양
소망
첫번
기술자
아데
제휴
카르복실기
서스테인
환원제
병용
최저
매장
##라민
##타입
##구직
매니저
550
##수수
펠렛
sl
##지르
##RS
##조절부
RRC
ant
##ong
##컴퓨
이형
부담
DEVICE
이소부틸
제빙
냉각기
##sh
무관
##노일
##ml
##유도
TB
소르
무촉매
지나치
MIMO
##yt
##munication
수도
구조식
NaCl
분사노즐
흰
##차트
##ARATUS
파단
수익
자세히
원위
배출부
어려워
Micro
중간층
소수
드래그
계약
정전용량
APPARATUS
유기용매
##하중
hydro
화이트
##oph
Glu
##손실
고르
둘째
##모스
##31
##ification
##발생기
뮤
##수수료
전극부
##글리세
수압
##풀리
집수
쥐
##ull
미네
Man
스템
포지션
공사
루트
##히드록시
탑승자
대기압
액션
재결정
디옥산
##agnet
주연
비산
270
펨
상의
나사결합
##ound
딜
스트로크
송수신기
화제
##데칸
##입력부
DSP
'-(
NA
2001
주머니
##베어링
벤조산
나온
아라
심지어
광택
동심
인력
##플랜
범퍼
항공기
##35
아지
나무
마무리
펌웨어
인증서
##설명
##OF
구인구직
##질러
레코드
화상형성장치
##24
##분산
통풍
저장장치
에피토프
심각
##이버
##78
용해도
암나사
직전
DA
##시켜서
141
국가
병합
ab
1500
설페이트
자주
##트라스트
원주방향
아밀
##atter
상동
묻
흡음
동박
확대도
햅
구와
구동수단
대용량
바아
##플롭
누수
불휘발성
디젤
부작용
꽃
micro
420
취부
노르
텔레비젼
브로드캐스트
##inal
바라
야생
설정값
Med
양식
반도체장치
ZnO
골수
##직경
전원전압
##수화물
수차
GU
TNF
##65
non
승압
##컴퓨터
플랩
웹서버
##면적
DD
##pplication
인조
히스토
홈페이지
요입
과열
##증권정보
##ulation
구인구직정보
막두께
##간다
마찰력
수질
이진
내피
##접착
지구
식기
탐침
Cor
설포닐
본문결제정보
감지센서
LB
요오
met
집속
원본
흡수제
체결구
안트라
소독
결제증권정보
Rad
카복실
리테이너
송풍팬
##34
##티탄
지압
항중
Rb
##ear
광촉매
옷
롤링
흡착제
치가
과다
##글로불린
마스킹
사면
스크리닝
모세관
수용홈
118
HAR
##UC
##gt
sol
협력
우레
시험관
콘센트
커버리지
##ree
처리액
과잉
글리세롤
지붕
소금
문자열
##로오스
틸트
204
##뮤니
탄탈
와류
이너
열선
룰
출력축
##방송
트리아진
마그네틱
유방
종합
##재생
감기
##쐐기
한도
화질
##기준
이미징
노트북
##74
지리
게이트전극
##흡입
##리소
##28
Display
스타일
##ave
단가
##ryl
cap
대각
##코트
##ference
돼지
##술폰산
##디메틸
날짜
레귤
얼라인
재치
노화
PDCCH
수세
지중
블렌드
##그라
with
실외기
전자장치
합산
이동성
게르마늄
##클론
정확도
인삼
##EA
고밀도
LAN
본래
불화
티켓
인스트
동맥
액적
##GR
생긴
스테레오
##ray
##알케닐
혼합액
##아들
OCH
숯
틸팅
##실러스
백혈
유리판
헤테로원자
휴대단말기
-)
대차
##좌표
코크
프로폭시
배전
LNG
중심선
발송
2010
플립플롭
##led
혼련
단수
반도체소자
된다고
현금
##테트라
##루프
##젝션
##sp
위치결정
참고예
##프리
크레
는가
##quid
##iple
테트라히드로푸란
일종
나가
티아
La
2007
거더
##접점
높여
유익
rad
서스펜
콜로이드
앞쪽
φ
##흐름
염의
현상액
혼성
중간부
햅틱
인스턴스
정하
청정
##기성
취약
튜닝
하이드록실
디메틸포름아미드
보조제
과일
서브시스템
##능력
정형
##68
##이어티
조화
금지
THE
초산
280
##라인드
##atch
##ient
##gr
송수신부
##테닐
여행
서브필드
짐
축열
##사고
##대상물
측면부
##61
균일성
##ific
##71
걸친
##비게이션
##가노
The
스냅
프로피오
##95
##선관
리플
첨가량
커뮤니
직후
##변속
물건
##옥시기
##타르
다기능
##ROM
Mw
콘트라스트
열수
##64
모이어티
##acter
컨텍스트
Memory
장공
소지
1200
네오
##캡슐
헵탄
배럴
3000
프로젝터
##리튬
붐
확정
##변조
by
응축수
##포인트
겠
캐비닛
밴
##차지
최적화
쐐기
차트
지환
signal
Pre
##멤버
음파
##IO
디아미노
석탄
발사
unit
격납
구아
##거운
##확인
NaH
반대방향
##블릿
석유
##max
Vd
신선
과산화수소
##설폰
내마모
Rf
...,
헹
어떻
DH
≥
RL
재활용
211
Mol
니코
히드록시에틸
반구
##노에이트
##DA
##팔트
##ACT
시이트
인플
High
지급
자재
##메모리
샌드
측방향
펄프
##고정부
부트
미크
##As
127
글로벌
##세척
빈번
충전기
컨택트
구해
출력단자
##조사
가로질러
관통구멍
제습
노면
비점
돔
미네랄
##자동
알킬아미노
노력
실리콘막
##38
자일
시행
와이
니들
##TM
##ve
##LR
실록산
힌지부
에피택셜
여성
증폭부
결합부재
145
HARQ
기에
마사지
침대
제조시
NS
최외
용강
열차
방사성
Vol
행위
점점
카테터
집적회로
2009
##공급관
폴리옥시에틸렌
Service
독소
유기산
##술폰
##미러
개방부
BD
##out
비누
Sub
발달
Protocol
화분
제트
##방출
커버부
##ser
피트
낭비
##QI
RD
원장
폴리싱
##어러블
##증폭기
TX
스크루
관성
패키징
턱
2008
사물
웨어러블
프로피온산
무시
셉
##시점
굵
아제
려고
방열판
##영동
##센터
상처
##EF
##치료
프로필렌글리콜
항생
홀수
터브
그릴
Tg
##내부
행한
##발생부
식생
연기
##제어신호
정점
착물
소각
175
입력단자
녹음
프로펠러
디엔
공장
도면부호
##감지부
결합돌기
페이로드
종래기술
BR
어깨
체계
골재
사이토
##연결부
142
##ENT
옥수수
배합물
코폴리머
주변부
냉동실
151
레이더
한데
분류정보
펨토
리터
영화
페닐렌
델
##껍질
탈부착
##chem
Ab
트렁
##램블
버블
%;
##동력
초간
룩
부싱
##스크류
당연
##분포
오버랩
ER
광중합
초고
호르몬
항암
동결건조
AST
##탄성
수문
약한
디알킬
가스켓
##전화
라텍스
Vs
일방
파티클
가구
측단면
val
이용한
##ative
##arg
포착
비슷
황산나트륨
차륜
짝수
보인다
고화
세계
우산
##아미
고상
##Si
Sm
주축
구동기
에틸렌글리콜
##지수
벤즈아미드
##91
유화제
##분해성
Asp
##동물
회전식
유리기판
수소원자
MF
##함유
비교부
과량
##ector
사출성형
취할
Pharm
밀어
특허출원
증발가스
공작물
##개폐
쇼핑몰
##헥사
접합체
##포스핀
##Al
203
배기관
시장
##요법
340
경감
재봉
처리실
##수송
##광원
##테인
벤트
인디
##rea
종단면
##por
갯
TFA
##rid
서스펜션
소자분리
144
관여
미크론
해독
ε
한층
모자
항온
##정제
생체내
이체수수료
트랜스퍼
##하부
보급
##혈관
이룬
트렁크
연화
가교결합
대리
MOSFET
캐리지
어음
뜨
##FE
RPM
전면부
##투입
말단부
아마
##추출물
염기서열
##정식
##나아제
추세
CONT
거품
MU
가깝
악화
"(
##98
밀리몰
par
212
마리
##셉터
##낸다
밀링
마이크로미터
##AA
좌석
##urn
착체
내비게이션
입찰
원뿔
가로등
사이클로헥실
##접합
ᄃ
개시내용
점진
일정량
전기영동
펜탄
##박막
비동기
##ik
반사면
모형
오직
단자부
조절기
조류
##EGF
DI
북
이미드
곡물
조금
분석부
감쇄
117
선재
가압부
게인
보였
하부전극
##배양
칠
결정질
동화상
안착홈
폴리이소
##포장
##umin
겉
##ood
##tein
당좌
니트릴
전송부
##응답
제너
피해
##실레이트
NAND
트랜시버
PVC
발생시
철도
호모
##퀴논
합한
개스
##reen
특징부
디이소프로필
##규칙
동정
리벳
##트로피
##기부
##관능
##rier
살포
JP
시클
지지축
펀칭
끼워진
##알킬렌
표면처리
레귤레이터
구름
##밀리
##eb
코덱
WLAN
표시판
SYST
블라인드
SiC
레티클
스피로
반투
보호기
##ise
##버시
소결체
퍼스
PDU
시클로펜
공업
##ae
손목
벗어남
##actor
##ESS
얼마
나노튜브
너비
디렉
시청자
오버레이
전신
물탱크
질문
겹치
스크랩정보
##로운
더블
시클로프
Thr
##프린트
일어날
디에틸렌
EX
상하부
웨이브
이더
맞물려
인젝터
송금수수료정보
##회수
과거
##icle
유압실린더
2011
충전재
역회전
MM
엠보싱
클래드
회동가능
##엔진
모멘트
스테이
부스
수신측
궤적
##32
##네트
갈륨
##청소
그물
할로겐화
끝단부
관리서버
man
콜레스테롤
저해제
피가공
시험편
고급
하류측
징
##de
환전수수료정보
단문
촉진제
분류저장정보
수광부
##에스
port
이룰
##ganic
##사미드
비트선
mi
모아
##ystal
피어
ND
##투과성
##저장부
##andom
부시
Phe
##커싱
##ISA
룸
집게
스케일링
인덕턴스
NT
조기
일기
##어리
냉간
결정립
특개
유지보수
다중화
##판부
공용
##oxy
QoS
근위
##ethylene
채팅
Pack
죽
bit
광원부
AN
천천
이더넷
##메타크릴레이트
이드
음극선관
아세트산에틸
부탄올
시켜야
저류
##경부
아세트아미드
싱글
천천히
균등물
디스플레이장치
##ange
##ission
##캐리어
유기전계
GUI
205
유무선
희망
스타트
##프로피
글리세린
##무늬
##돌부
ω
반사광
아스팔트
슈퍼
입금
기이
##파이드
덮개부
##회로부
보행자
DMB
CQI
웨이트
조합물
포크
256
##하여
받아들
디폴
ADC
핵심
반출
##uff
완충제
##락톤
회전운동
Rh
Ass
트랜스포
받침판
##시키면
공하
##공급장치
##ping
##ipt
저전압
완벽
물성
##당류
##정렬
파스
상관없이
sup
152
SAM
뉴클레오타이드
스로틀
##덱스트린
메신
안치
수취
밝혀졌
디폴트
스탬프
##emb
이산
디옥소
믹싱
5000
오프라인
적립
sw
스크라이
디스펜서
155
반도체기판
트라이플루오로
열리
##ptical
##관절
나열
##제어기
어떻게
후측
반시계
패시
전류값
회전부재
##슬롯
배수관
퀴나졸
##아세틸
##ible
억세스
##압연
씌
포토리소
Mobile
##토류
sens
분석기
푸쉬
본드
금속염
인원
##현미경
인터페
Sb
display
##알콜
진정
FC
##네이션
피팅
소르비
##ylene
이란
내식
##rain
##플랜지
동작시
스위치부
끼우
쉴
나이트
일어난
극히
##토크
##래치
##iver
수용공간
덩
스레드
매입
kHz
불연
포토마스크
페인트
모르폴린
헤테로시클릴
클로닝
전통
게이트선
깅
COMP
새롭
차수
오퍼
참가
750
흐릴
end
##염화
반입
##iber
동의
##tegr
##카르바
CNT
분주
배포
용매화물
650
##ersonal
DMA
CRC
##레스트
미들
두껍
##문자
방진
절결
high
후처리
dep
가방
곧
헬리
붕괴
태블릿
입력축
공통전극
상품권
입도
차속
구이
form
##상부
##플라이
Er
##판매
car
시차
잔량
절편
지지봉
세탁수
##xy
PF
흡광도
FS
##난방
알아
##apor
키나제
##36
고정편
티올
메신저
##ideo
레드
##제조
**
##oding
글루코스
컨디
510
특징점
##속사졸
MN
##ail
ASTM
동영상정보
구동신호
....
저장조
안내부
##다공
도선
RO
##mission
사용상태
원자수
결과물
면역글로불린
열림
##타이
트레이스
고정대
##코르
174
MV
데카
페난
Unit
VEGF
아우터
##로봇
##내역
수확
내연기관
log
앤드
투명전극
##식각
식염수
프로테아제
끓
휴지
154
##oid
FA
DO
커튼
구동기어
오버헤드
GPP
프로판올
Ru
프리차지
##PA
스코어
글리코
어퍼
ELISA
##격자
AG
하드디스크
##ucture
쉐
와인
SYSTEM
역전
##UM
SIP
플로어
감산
슬라브
저작
오래
##반송파
범위내
누구
##너스
넘버
점화
LT
쉬워
수개
관체
스트렙
스트랜드
래트
OUT
디온
레이저빔
폴딩
긴장
##주사
##상자
어린이
파라핀
외통
##하이드록시
##랭킹
##ga
해시
상쇄
베어러
폴리아크릴
me
over
레진
표면적
##옥사졸
수화
HV
캡핑
##광고정보
백분
회의
투약
##유량
부딪
스터드
모음
점멸
##미트
환급
저항기
방안
아크릴로니트릴
친화성
고조
퍼스널
닙
reg
리보
결실
light
작동상태
가리키
다이어프램
memory
##티오펜
강의
oxide
엔트로피
점토
제약상
##수관
모바일뱅킹
달라지
##96
접혀
##라이저
진동자
본인
##AGE
감응
참조번호
저장실
떼
제반
셋업
방정식
수록
##파트
접속단자
말레산
발생장치
소변
아크릴아미드
고는
GHz
##파닐
##vent
스태
back
다수의
코크스
오스
스키
콜로
미니
PX
옹벽
##ome
##이온수
일괄
야간
옥살
##식품
골프공
출력전압
##ref
디벤조
후자
시야각
##pen
꺼내
배기구
피동
-[[
Ce
딥
보디
추출액
##피페리딘
##포스페이트
크래
VoIP
배양물
아미도
언로딩
잘라
인광
알데히드
##기물
축전지
반대쪽
아치
##방울
직급정보
겨
메틸에틸
성인
조종
##....
마진
핸드폰
에틸아세테이트
취미
걸러
##스케
잠금장치
콜렉터
##퓨란
공여
감속기
무효
표피
리모트
##페어
##중량
##72
취해
##rome
대장균
##티스
메르
##ireless
다수의광고정보
신뢰도
축전
버킷
##압축
설폰
##92
인터넷뱅킹정보
##76
구성원
단조
##iation
여액
포커싱
##IA
##데하이드
WC
이성체
MO
활발
##anced
##ucle
##피드
##iew
##TV
dr
브로마이드
고추
''
##gc
하전
Immun
글리시딜
소포
피벗
무작
산정
Bo
봉입
칸막이
##illus
받침부
field
층상
사이클로프로필
고농도
2012
엑스선
##부티
##vers
전도도
##itro
폐색
플루
##eed
〕
두부
##평균
메모
롬
##면부
뛰어나
access
전문가
UP
##데이타
FD
하이드로클로라이드
체크밸브
선명
염산염
무한
301
##카바
##ject
##보조
파이버
##lyc
##지름
용품
비아홀
##송신
니코틴
공급물
상변화
##ZO
강조
##티딘
ABS
접힘
양자점
##열교환기
##unt
스틱
는다면
##road
BB
165
면상
##ii
칭함
함체
##피롤리돈
책상
배플
높이조절
붓
인터리빙
##시클로헥실
일산화
용탕
비표면
직립
무작위
##지그
반응조
메트릭
업로드
EGF
섀시
##홈부
##감염
ref
##기계
실측치
FM
DATA
##응력
##mon
430
스트랩
환전정보
관제
##ian
##폐수
##umber
전력량
Act
SV
팔레트
##uring
카르바모일
COR
##타제
##영향
channel
##질소
서랍
만나
##자재
##다중
##ivision
황산마그네슘
전력선
##고기
강유전체
##com
해충
전원공급부
들어오
변색
가열부
옥사디아졸
통제
시리얼
##ext
행거
BT
Rx
대상자
스루
VII
반대편
클럭신호
##와이어
119
가압력
##배출구
##억제
##프로폭시
##nal
폴리에스터
##ne
주지
##플로우
Ed
드로
췌
입사광
Biol
FPC
##로겐
##메이션
알칸
청취
채워진
이탈방지
##set
사회
증감
피처
##순위
ISO
SI
##운딩
실용신안
##피닐
유산
고정돌기
##표시부
당기
곱셈
##asma
하루
여유
시인
홀로그램
젤라틴
선부
##유동
판형
##인쇄
어두
분실
138
무기물
단선
포토다이오드
##진동
스프로
마그
디렉토리
아니한다
서브세트
갈색
바나
##분배
라디에이터
총량
연령
로워
진동판
##닐린
글자
탄산칼슘
모르폴리
수렴
갯수
##오일
아스파
낼
GSM
직조
##도전
part
##히클
센싱부
작물
초전
즐
Dr
신축성
정제수
처리수
도식
##af
##재그
관절염
냉각장치
Device
광로
용수
내부공간
탈이온수
지그재그
##실용
Cd
공액
이를
##화막
파이프라인
로운
##트리스
유추
회전방향
배율
##부민
회전각
괴
##시경
내마모성
방울
##ynd
수나사
한글
##ational
클리
##모델
편성
포스파
상류측
뜻
대물렌즈
TLC
에탄
##병증
레인지
트래킹
실리케이트
퍼플루오로
##UV
나란히
히드록시프로필
아데노
유리섬유
추론
알킬렌기
잘못
##etra
흔들림
##프라
##프로판올
라이닝
산화아연
바디부
내압
삼중
##혼합
코드워드
##어셈블리
##이용
해체
NF
내리
##컨트
CE
NACK
Per
안티센스
기준치
아무
##픽셀
##oh
핸드오프
##uch
##혈증
날개부
인산염
##세닐
변기
염색체
감지기
##iol
오염물
문양
밀려
단차부
양생
FF
차측
떠
비히클
LCMS
교번
eq
시클로펜틸
줄기세포
##염소
복원력
232
##der
비경
##ccm
거부
버퍼링
가시광선
LO
광물
트레드
배리
움직일
##gramm
MgO
##inyl
운영체
스킨
입력장치
계산부
부속
##곡선
처방
유지부
개도
PVD
아키
행함
안전사고
삽입구
난수
##DU
CV
##트리아졸
sccm
사무
##받침대
도난
헵틸
거울상
##000
개요
이동도
iv
##son
열매체
##이미지
웨이
##ied
스텐트
##ivers
##레르
Be
BM
##온도
##검출기
##낮이
##화수소
항생제
방제
129
카보
토션
케이지
Process
표본
활주
바텀
저역
FT
세포독
##속도
확인부
결합력
술폰산
꽂
자이
높낮이
##검출부
난연제
중앙처리장치
##플러그
MSC
회전시
TiN
XX
가로지르
##45
열량
si
제곱
##cript
##etic
광센서
할수록
안내홈
가할
##인돌
##신산
히드록시페닐
레시
자궁
##어져
유입관
##로신
댐핑
##DC
미용
접근법
##립트
시클로알킬기
항산화
포일
방지막
피험
Phys
좌표계
선행기술
자율
방화
염화나트륨
카복시
##uter
##펜타
도광
부반송파
가산기
Fab
##eck
필기
##네일
마늘
가루
발명인
묘화
혐
카르복스아미드
재단
UTR
장방
π
팝
등록특허
136
##원단
루테
급기
나노섬유
촉각
표시기
##폐기물
##urrent
과학
상태도
power
##LK
상담
##검색
셀프
액정표시패널
##클로날
전극판
희토류
테일
결핍
멜라민
##레인지
dim
Techn
##미션
##DS
망막
출입구
GR
가설
과전류
눈금
##신청
급격히
취미정보
Eu
Nat
##ength
배수구
헤테로시클로
아이스
혈압
바스
전압값
인증처리
##arge
디히드록시
보트
조절장치
PDS
도데실
##자극
##phenyl
캐스팅
얹
판스프링
##로일
뒤쪽
각형
카피
##yndrome
원심력
살리
페난트
정산
무전
Ile
하드마스크
##개시제
dif
##ograph
VB
피란
##ale
수십
Lt
고조파
##벤즈
화기
구할
메모리셀
SIM
##공구
##겨진
후륜
수은
가축
##턴트
His
할라이드
상부측
뒷면
222
연골
##공간부
맙
제대로
금속배선
##aterial
치과
SG
리시버
재차
##rix
가이드부재
##전도성
PVA
사방
##플렉터
스폰
##LS
결상
나이
자막
##리학
고기
피리디닐
전원선
덩어리
정비
리셉터
##amic
##케이싱
고성능
CK
##텍처
##플라
엔코더
##디노
##onic
Radio
등간격
Sw
밸브체
측위
##ancer
타르
mode
RX
221
입수가능
약하
kD
##커넥터
트랜스포머
텔레뱅킹정보
용접부
잉곳
##라아제
리셉터클
주변단말기
트레이닝
크실
가벼
hr
##포늄
##irect
철판
phase
%),
반사경
##클러
렉
나이프
아키텍처
methyl
안구
외주부
학생
단말기위치
##agnetic
##73
도형
이동통신망
천이
##ability
닫힘
내시경
밑면
OSD
펄스폭
스펀
비휘발
베벨
##ict
언제
##mitting
머리부
-({
520
전이금속
##ton
기저귀
내통
오믹
##ugh
페로
WT
룩업
##용수
시아노기
161
떨어뜨
노래
샤시
투석
빌딩
##티타늄
전립
시트르산
합착
##aw
##수용부
##직선
##러짐
불규칙
##스피
Electron
선폭
##면역
종축
##esc
set
##ffect
Fil
산화방지
##man
##ror
디카르복실산
과부하
멈춤
302
지형
이익
##역학
전송한
GF
JIS
##젠테이션
##인성
이완
낮출
췌장
##콘크리트
##워킹
스트라이프
point
흥
앉
225
활성영역
EN
시공방법
창틀
Time
파지부
##무수
##분할
부화소
상표명
포괄
플랜트
드롭
리드프레임
약칭
닫힌
훅
붙이
##항목
Aut
통신수단
벤즈이미다졸
아가
syndrome
성숙
##글리시딜
델타
##반경
경매
##변환부
##보정
DIS
구성예
##공법
##생성물
##기상
162
##기반
##인팅
빠져나
206
결제수단
##ocal
Lab
〔
Cs
시선
혈당
불변
석고
##라운
매끄
캘리
##여서
창호
바뀌
##염기
spec
PCT
동위
방전셀
키메라
CU
Blu
가열기
배위
IFN
##다만
PLC
생장
무단
Sig
기압
정수기
입상
304
삽입홀
거기
##꺼기
network
킨다
Channel
부드럽
기준점
아바
워드선
미량
추후
eV
##브래킷
##79
마그넷
##임계
##다란
2013
용융물
선상
##글루
에틸헥실
코일스프링
##카본
Gro
공급자
변할
208
Syn
Hf
일렬
max
LA
리프팅
##마개
##itor
시스테인
형성부
##시클릭
##주석
##올리
전단부
검색어
##키스
가까이
바코드결제정보
고효율
지퍼
자산
EEP
프록시
RI
##inc
##혼합물
Tyr
사업
이리
글루타
압력센서
향한
홀드
Frequency
개폐장치
고품질
##In
정사각
체내
##쓰레기
플러스
반도체칩
네거
bp
Cp
전위차
제상
중심점
주유
Sch
원고
전립선
분획물
비경구
트라
시프
##드라이
일본국
드리
여겨
내화
##풍기
다이싱
지하수
헵타
##CI
액화가스
##관부
##구역
포토리소그래피
##리트리
부적
##다운
##GG
##파이어
스파이
##전화기
비등
동종
패드부
콘솔
감정
키를
주장
유일
대각선
분지쇄
네거티브
복합재
인식부
시계방향
흡수체
Tx
타이틀
##용제
##용접
##ook
고정축
사멸
##티닐
쿼리
##체인
메틸아미노
속한다
mon
실선
sur
공급라인
탄소섬유
코팅액
저전력
##유전자
bi
리액
알레르
밖에
감지신호
##istor
고해
플러
경피
폴리실리콘막
톨릴
밀봉부
고정설치
일어난다
NOx
##텍터
따로
##uf
##quest
고로
광속
SiN
토사
block
##ension
어디
껍질
##18
부압
모노메틸
오퍼레이터
반사방지
MAP
서지
눌려
부톡시카르보닐
리모컨
##pon
XML
부틸기
지지편
##플리터
1999
수산화물
놓인
##15
CI
264
##에노
##PD
워터마크
간소
수로
##싱크
그럼
스크램블
취소
215
##승인정보
코스
##anel
NaHCO
드러
트리메톡시
Fi
##ute
##장착
##함량
##모노
성형물
PUCCH
운영체제
##술포네이트
##에탄
렌즈부
Oxide
phosph
##발전기
##수납
인디케이터
집합체
단시간
퀴나졸린
##ans
중수소
digital
유기전계발광
소멸
끌어
온열
##ift
분압
##조절장치
브랜
##청소기
발화
첩
악영향
어긋남
히드로클로라이드
파스너
구성부
병행
재설정
상피
아님
체제
세공
멈추
##지연
〈
쉴드
비표면적
ATCC
no
바이알
Light
최소값
마그네트론
타워
EEPROM
유기상
오수
관상
구한
합계액정보
치형
172
방송신호
##ody
##터치
띄
##완료
고정볼트
쾌
##성장
VIII
생육
des
리프레시
풀림
인증처리정보
난연성
실수
##캐스팅
RH
중공사
왕복운동
##ized
##인산
생분해성
증착법
##ering
##ring
얼라인먼트
재생장치
공동구매
리프레쉬
늘어나
##루엔자
킬레이트
우안
경기
New
다진
트리플루오
SCR
Ltd
##ream
특유
밸런
일산화탄소
ET
LDPC
IB
감광체
겐
백분율
원칙
내재
포스핀
1100
요철부
##apt
겪
함몰부
분쇄기
##표지
현수
##베이트
앵글
프레임부
POS
페이퍼
이미노
동체
도너
##변경
##화장치
복소환
##emic
bas
이온주입
매크로블록
턴테이블
214
적재함
유럽
전시
##워딩
부텐
장방형
상실
syn
연락처
인정
성상
정전압
Low
밥
##국어
심부
##판재
반사기
pack
##발현
##폭사이드
using
시리즈
##62
나중
헹굼
##디드
못한다
세탁조
##융점
클리어
##동맥
결제비율정보
선택기
##력발전
##ACH
르
무선신호
Gln
##33
구동전압
RLC
##스턴
Sol
##ush
소개
차이점
inf
결합구조
옥시드
피리미
매트리스
투시
인도
흉
강철
알부민
럼
주요부
첨가물
루테늄
##리스터
좌안
탄수화물
정해져야
포워딩
##cept
보습
Qu
샷
옥타
SDS
BO
002
DSC
절단부
Io
차양
주방
##ogen
##버퍼
토치
##레이팅
할인비율정보
린스
157
배리어층
아디
수평부
FB
코드북
레지스트막
조치
하부측
##신경
##몰드
면역원
리더기
##amin
Col
##오크
승차
Asn
##리트리톨
발포제
but
홍보
##황색
##vol
히스토그램
##세서리
여과액
상호접속
역상
prop
HIV
간헐
##던던
공개특허
디코드
##amine
440
BA
데스크
끝난
도포액
dec
팽윤
로움
해저
종횡
정방향
흡습
플로우차트
날로
임베
미반응
내포
원사
##14
발아
우유
circuit
010
구동회
리던던
계좌정보
##조류
수평면
중탄
##무수물
##itive
정치
##ept
철심
##에탄올아민
슬리
##연장
LM
스플라인
##변속기
엉
거대
증점
냉난방
water
##페닐렌
##셔너
올바
사이클론
켄
프리코딩
수많
##ecular
안면
피더
상관관계
ECC
원반
가공물
##시아닌
##반전
히드록시메틸
색도
탁월
신호처리
##핸들
터치패널
열린
귀금속
우회
결제비율
광고수신
143
구동방법
파열
에코
백혈병
Press
자면
##지역
CRT
늦
여자
커넥
본발명
비제한
해리
물품결제비율정보
녹인
비제한적
##acillus
중립
이른
##소판
당김
인발
커브
트위
##ermal
사제
##롤린
sm
##uration
송전
열원
열기
배당정보
교시
MG
분극
네트워킹
람
느끼
유입부
오링
##멤버쉽정보
##다제
##하우스
##팡이
수소화
##개구
협지
진열
User
사파이어
폐열
레아
선수
결합기
핸들러
없애
흔히
러버
이금
발색
콤팩트
silic
RN
##방향족
분해사시
TDD
경첩
이물질
자중
애니
비료
##ential
##----
공급기
동조
스위칭소자
분리부
상품광고
내로
##광학
보증
231
연쇄
load
##erg
rate
에틸기
커버부재
금속박
마이너스
##레싱
흡열
옮겨
##성기
psi
##essage
GPC
상품결제비율정보
결제멤버쉽정보
상품광고분류정보
동기신호
발병
##세인
연직
##드리
금속산화물
닫히
##GE
어두운
접이식
출현
apparatus
마일
##버시티
##식물
원기둥
뒤집
Str
가한
생리학
시설물
야채
##셀룰로오스
##배치
보강부재
위장
빨리
tt
##ents
read
버섯
코아
TL
판독기
제어용
창출
##포터
255
##모르
저수조
연료탱크
집적회
알콕시카르보닐
비해서
방부
엑시
식이
트레일
접시
사건
무선랜
우편
다리부
단의
클럽
전륜
화소부
##LY
그라우
원거리
##자원
Acad
작업대
히드록실기
NB
비즈
덕
검사장치
작동부
ᄀ
인플루엔자
EDTA
통신채널
가리킨다
##프레그
##바늘
아토
불용성
메르캅토
##85
축부
수직부
다관능
Power
라세
확실히
##rich
최상부
장축
##혈압
발전소
팩터
MW
frame
식용
낸드
##grammable
탈기
탈거
장갑
가열로
판정부
보이스
소실
아다만
GW
가부
아바타
배타
난간
리페어
##2/
XR
Tm
##변기
##ask
##ration
주체
충격흡수
반투명
칭하
광고수신승인정보
##철근
오동작
브랜치
이동단말기
배출공
지적
연결기
PCI
GM
프레임워크
소비전력
미설명
잉여
냉각제
Sup
##시안
고용
물류
강선
데이터라인
##상황정보
PK
°,
구로
시안
회동축
진탕
SRAM
헤테로아릴기
##편차
gen
원추형
이룬다
리드선
배달
폴리실록산
끼움홈
##프레서
##DP
##자료
##오차
##포르
헤테로시클릭
넷
스크립트
밧
전자식
빠지
##촉진
일관
폴리비닐알코올
##챠트
합하
1998
Cys
##)-
##매스
##정지
Interface
작동시
최하
정류기
복굴절
리미트
EB
뉼
프로젝트
인장력
스트렙토
##클럭
##픽업
프리프레그
Type
교차점
##ism
벤조에이트
〉
헬륨
##촬영
가연
묘사
##uffer
##카르보네이트
##프렌
사례
바나듐
SOC
ASIC
아닐린
도와
##플렉스
인산화
##환원
개스킷
노즐부
성형기
##atio
운전석
##구리
CAR
후방측
Dep
콜리
MME
##12
##obal
표층
Car
복용
LR
##카르복
##소비
색인
칭한다
피가공물
##구체
직진
커뮤니티
element
##루스
add
부모
연습
시험예
고정체
통행
##CR
##99
진공펌프
##돌출부
스테아레이트
전기신호
플롯
##로이
##경매
영업
380
##ifier
##cl
DF
살충
##클립
상부전극
수크로
게이
del
반환
선택신호
밀접
솔루션
통신모듈
##be
##발생장치
컷팅
취입
요망
##부탄
조리개
##Se
온도계
CAS
결합체
최선
트리클로로
신호전달
CG
##옥산
EA
화소값
KOH
수신장치
146
##ness
○
개봉
추종
이동한
중금속
청각
에폭시기
매스
크실렌
테트라키스
##실화
피착
맨드
호일
##알루
##옥시드
앙
영어
커널
문구
처치
문틀
다이버시티
phot
er
주연부
##로니트릴
비스듬
브이
##요금
##상정보
찌꺼기
cal
##사이클릭
침강
곤충
컴팩트
윗면
외향
##흡착
function
주간
웨지
사이버
냉각팬
어긋나
##배지
펜타에
카복실레이트
매치
##아제핀
##que
##GaN
##파이
##HT
인상
그라프트
제어모듈
대조적
제거장치
모우
포름알데히드
십자
FFT
##뮬레이터
향미
Proc
마를
미정제
IMS
원활히
매수
측벽부
소통
유방암
##잡음
피롤리돈
용착
무릎
CSF
##DR
key
심하
작동유
Ant
●
분석법
열매
풋
SAME
Inv
##ctt
자장
filter
모노클로날
접철
약화
스포츠
화소영역
저주파
##식별번호
계합
가졌
Ident
To
Read
소방
러그
137
이소프로판올
반발
부설
153
절전
트라이플루오로메틸
정맥내
실행가능
합쳐
퀀
term
힌지결합
UM
테두리부
튼
OB
##현실
카르복사미드
신호등
##주행
##ral
σ
유산균
가해진
##불량
디스크립
셔틀
공급량
##버섯
사설
프로젝션
스테아르산
항산
경화물
압압
η
글리신
반사부
의약품
형질감염
혈소판
0001
킨
차광막
##컨베이어
##스트립
체결홈
대행
광도파
보호필름
에치
plate
라우릴
바이폴
로더
침출
기회
포장재
##rad
##ingle
구상
배정
넘어
동전
페닐아미노
##벤조산
##편광
사선
##UF
복권
##eh
##ling
스크랩분류정보
열람
향기
siRNA
down
출력값
##관체
일일
표출
Personal
벼
취한
리브레
인성
##피페라진
사인
254
요리
aut
모르타르
168
##UL
miR
기저대역
고해상
##ner
걸림편
##수기
홍채
히드록시기
수전
벗겨
##CN
조작자
전류원
파싱
타면
폴리이소시아네이트
유기막
##디스
##레이미드
홉
성취
Ro
##대차
kPa
SNR
입사각
금속재
##사슬
##냉매
디퓨
버클
kDa
##네트워크
흡입관
대항
스커
인다
사다리꼴
##any
치밀
텍스처
##그레이드
##콜린
하의
##나이드
설탕
아스코르
테트라졸
COOH
콘텍스트
group
##세정
Sigma
CCT
케이크
사이클로헥산
셋째
보호용
페어링
플레
##경사
158
여분
알맞
고내
벽부
MMS
스프레
신택
##ube
##cast
엄격
이속사졸
electro
스트레인
사이토카인
상시
디스에이블
애완
폴리에틸렌글리콜
MI
##con
탄성부
DCI
수집부
완만
래스
열연
가역
캐비넷
잡아
##ize
##뭉치
164
매달
라이센스
213
복강
초임계
스쳐
Wireless
##둘레
집전
Science
흡연
480
플로피
##골재
제초
대립
##럭션
체결수단
##리노
곰
##친다
305
신택스
Ia
고유번호
롱
##테나이트
좌표값
##ott
영상데이터
냉온
케미컬
부동산
반구형
##스로
KR
자유도
항공
Code
##thal
Rc
전략
Signal
바우
##ubl
매개변수
최상위
의뢰
##전해
factor
ML
PLL
주택
바스켓
그리하여
제목
##fig
##측면
610
플리
850
금속제
둘러싸인
166
수처리
##천연
플루오라이드
유전율
분해사
성립
원통형상
##enter
glyc
가이
##77
##ett
##관통
##esis
Rt
원통부
##mb
알라닌
##ffic
Is
과장
서식
역경매
음량
견딜
##스타틴
슈트
Bu
SOI
모서리부
업그레이드
low
미스
찾아
Anal
색차
로케이션
동반
말초
타공
아마이드
acet
##설폰산
유전막
홍삼
171
플라스마
절대값
레코더
오물
안정제
대처
##가이
매일
##kin
격실
부수
려면
##기상증착
나뉘
혼합비
PID
##용지
알킬티오
나눈
검색정보
##RAM
작동기
애니메이션
-;
프런트
그렇게
인스트럭션
HTTP
##ca
닭
185
148
##약품
도프
기계식
바이오매스
고해상도
405
메이
##로우즈
진하
공작
원치
푸리
유량계
311
캄
상반
액세서리
광확산
##소켓
이소퀴놀린
##세대
래크
피복층
HO
##코프
##진기
도킹
못할
##agement
일직선
궁
##출력부
의복
미려
근본
다용
##ivity
기준선
출입문
흰색
확산판
##순서
주식회사
복부
스케쥴링
시험관내
메시징
떡
부류
가늘
Exp
위치상황정보
##발열
##oft
베이스판
각막
##achine
##린지
스러운
스크라이브
하이퍼
굴곡부
스플리터
편안
Nd
요하
COM
##직물
수밀
크리
kb
광픽업
등장
이물
수신신호
이동단말
얼룩
312
##걸림
MEMS
분절
빠져나가
티에닐
세포내
수작업
포름산
헤테로사이클릴
암종
코돈
aa
aR
##지주
Division
0000
인터페론
알켄
졸릴
게이트라인
세포외
분리판
어드레싱
##ano
불꽃
상세도
TO
##려서
##atrix
오렌지
데옥시
밸러스트
##볼락
포도당
##전하
##리톨
##통과
리딩
반감
가로방향
##imedia
심한
MBMS
스킵
페어
bo
530
덱스트
히트싱크
외과
배아
##하면
앰
처리방법
탄산칼륨
카르보네이트
녹차
잔여물
무엇
로밍
아릴옥시
Out
COO
##orb
기어부
분취
##벽부
앨
벌어지
탄화물
Red
optical
유휴
공정도
난소
자음
##데리
보울
푸마
감미
포인팅
봉투
느리
전자상거래정보
보낸다
릴리프
염이
화학물질
잡아당
병변
##cm
상등
비소
우선순위
근래
절제
나라
##가압
용존
VSS
향료
큘
옵셋
획득부
구한다
그리스
##옥틸
##도구
THER
##TC
외층
배선판
느린
부드러운
세정수
베이킹
공연
플루오렌
관통구
서브픽셀
플레인
포밍
프로파
연주
뷰틸
동공
code
농약
##블랙
문턱값
level
도공
신속히
BF
항복
공공
방송국
표시영역
오스테나이트
문턱전압
##UP
역치
##원판
블로킹
투과도
트랜스미션
선불
대류
팝업
##ufact
air
히알루
##아세포
카메라부
따른다
제동력
콜로니
전자기파
시럽
세라믹스
유기체
훼
##록사이드
분사구
랫
액정표시소자
224
나노미터
XY
고순
질수록
HDD
코로
컴파일
GB
취지
소자분리막
##카복실산
##유전
조명부
열전소자
##tegrated
확장부
용이성
401
##지시
연출
감자
비컨
왜냐
##들간
Adv
##ape
드로잉
로커
다당류
EF
기울어지
에스트
평상
머캅토
태양열
##93
절단기
carbon
점막
허니
##수조
클린
진한
조형
전후방향
벤조트리아졸
불가피
##occ
##카라이드
스스로
친구
상청
절단면
굴삭
염려
dist
리플렉터
MAN
자식
불소계
인원수
##머신
펴
러빙
내벽면
밴딩
스폰지
##으나
지난
수백
흘러내
DQ
##omer
##클리
진행방향
##실용신안
내충격
온도조절
의학
가려
chlor
195
광산
우물
보강판
티타
대개
싸이클
티에노
pol
원위치
##육면체
남성
det
그라인
반원형
290
되돌아
항산화제
샌드위치
행했
Information
CHO
##붕소
디에틸렌글리콜
cor
##ATE
키는
"-
바이페닐
CaO
##무스
IG
음식물쓰레기
보관함
##황산
PCM
TG
옥탄
등등
선호도
놀이
바인딩
접촉각
303
##실리케이트
##버너
단체
정체
방열핀
양념
##ke
##통화
##브이
스트레
##16
비가
기어박스
##쥬게이트
래칫
보정부
RAN
수퍼
스텐
앞면
##atory
무결
직장
선두
정기
곱하
사실상
니트로기
li
Nature
접선
Vcc
착석
##ning
CY
올라가
왜냐하면
##니딘
1997
벗어난
##거진
##생략
##roadcast
부틸렌
Eng
세린
##상승
입장
##고루
링기어
마이콤
근적외선
##입체
소둔
크랭크축
카바모일
156
구동원
##URE
##가이샤
2014
##렉션
흐를
이소시아
트림
##세탁
어큐
원유
Off
##요구
프라
현가
메인프레임
frequency
##여과
정격
PTFE
flag
방지장치
##주소
팩스
날씨
골고루
핀홀
재와
폰트
##ross
서포터
농축물
235
##펙터
##ography
세정제
리그
VA
##ari
비데
가져오
송신측
농업
sulf
풍미
##층상
코터
수액
비전
####
말뚝
##마커
ALD
엽
딜레이
만료
경계선
가장자리부
헤이즈
컬렉터
##금액정보
##UN
덧붙
감각
차단부
바닥재
밀봉재
밧데리
##평면
탄산수소
##벽체
##웨이브
잔차
INT
##락토
턴오프
당첨
기능부
##타임
press
Application
##48
스크래치
벤조디
증점제
##플로
##보상
전지셀
##red
식재
아크릴로일
##란색
담긴
flow
피페리디닐
structure
스커트
##eak
모스
540
##비아
##온시
하로
번들
El
명료
##아이
권회
바실러스
293
나타날
셀레
통기성
금융계좌
불연속
식중
Liquid
##인더
검침
특허공개
진화
아랫
위사
재고
벨로우즈
가황
##레이크
멘
지지층
##이크업
fluor
익스
tem
4000
피씨
일일이
도금액
솔레노이드밸브
버스바
크라운
수평균
제조사
오실
개시물
명확히
바우처
##하이
발음
메탈로
소유자
##action
전류량
##농축
Video
바륨
차가
도시생략
최신
풀업
자연수
담수
락트산
미관
PDSCH
def
##차원
쾌적
전면판
카르복시메틸
돌아
형강
##맞춤
##min
고정프레임
모르폴리노
분사부
현대
roll
석회
공고
스티커
유황
부호화부
KB
회귀
용기본체
땅
탈리
세척기
##배기
mes
전송기
Rd
둔다
##odium
보도
입출
역다중
드레인전극
FGF
엇
자바
차단판
연결대
film
심재
Line
처짐
기울어진
티로신
나와
푸란
교각
토오크
##진단
sensor
안마
번갈
402
Organic
합류
##ake
인터리버
주어지
폴리메틸
##연마
내부전극
NMP
도서
유격
폴링
SIG
제어정보
Biot
이고
##메탈
아릴알킬
++
공차
##ris
##oss
붙여
단방향
##시네이트
EPG
산술
##기억
##ROL
조성비
##한후
벤조페논
Ts
행의
##기닌
그래프트
열쇠
병진
##tage
결합상태
##aging
받쳐
##rylate
법선
##ung
원액
영상정보
젠
protein
application
##uctor
거주
PUS
FPGA
해결책
몸통부
Cont
성별
하이드록시에틸
다이렉트
흥미
##로리
Univers
##나프탈렌
금융상품
반사체
##istry
##목록
컨디셔닝
털
다각
DCT
##솔린
통형
공식
##수차
바지
소정량
함유율
미래
전조
냉각부
반복단위
base
프리캐스트
꼬리
SiH
##ocation
답변
모의
test
키입력부
전제
노닐
##기체
핸들링
##rol
악성
##배열
##집적
##CE
metal
##ta
넬
가압부재
Layer
원시
승산
주차장
##air
기립
216
부팅
광파
Vth
디밍
틴
PMMA
욕조
반해
암세포
내향
직원
체액
옥심
##yb
넨
사육
치료학
구문
환경오염
##ella
##aph
고지
##알데하이드
엔도
독특
누전
아미노메틸
##보관
고정브라켓
차세대
##uction
1996
수계
##아세토
##상수
마이크로웨이브
향해서
비결정
엔터
electron
rel
스러스트
결제승인
IPTV
저장용기
##실험
림프종
Multiple
LF
리던던시
##실린
##장애
##프탈산
코인
씨드
##음극
임펄스
##osis
Soc
##믹스
##INE
설포
지탱
프린트헤드
탄화규소
##eral
전치
ep
붕산
광자
일상
카트
ret
GND
어류
전착
세이
##청정
223
##디늄
저분자량
ox
공동구매정보
무리
+).
##TT
코일부
농축액
육류
생식
207
##erc
NK
스트로브
##마자
##QU
##페달
니오
폐암
가상계좌
##퍼스
공인
복조기
##26
##파모일
협소
##지지부재
직쇄상
EGR
##ooth
LL
리세트
카르바메이트
세분
BAS
##프탈레이트
MCU
##끼움
##실내
단말기위치결제정보
박막층
걸어
##용품
##itr
진공청소기
AlN
탈락
##원장
윈드
##브로모
락톤
대중
부기
돈
##고안
인양
찬
##스틱
베개
드론
엄지
IoT
620
벽돌
370
와이파이
피에
테트라하이드로푸란
간섭계
시작점
얀
밑창
하우스
차압
FO
대체물
##소리
IX
광흡수
솔더링
하소
명함
GD
침적
For
상점
트리플루오로아세트산
PST
작업시
##let
이소인돌
##Co
행해질
복잡도
##quence
잇점
##토산
가까워
림프구
중량평균
##발급
meth
용리액
강자성
1995
163
STR
다이나
결장
##ensity
##ination
벤조티아졸
conn
PIN
지연시간
##축합
##셋트
각질
제조비용
전달부
일으킬
내층
항염
심근
마감재
추정부
##컨트롤러
##acc
##페닐기
Field
연결장치
닛
착탈가능
덱
media
결론
봉제
택시
비추
토폴
##VE
풍선
방사체
압전소자
상체
RNC
##파형
였음
마일리지
benz
원재료
512
med
하이브리
숨
위젯
검체
변속단
HER
가벼운
열융
규산
##트랙
##소음
보레이트
배분
전지용
USING
Par
##니톨
계류
셋톱
착화
서브캐리어
코르
여과기
방향전환
인스턴트
넓이
##라고
지장
##피롤리딘
개폐밸브
##uman
타겟
ZrO
가솔린
저장고
##아지
제어하
##린산
##카르바모일
필요시
디부틸
Vref
색깔
셋트
##필러
245
분별
equ
이동형
해져
라세미
미칠
003
Da
##arget
카르복시산
렌티
피리미디닐
int
전후진
LE
Rec
물통
끝나
트리메틸실릴
##베이
팜
티슈
이송관
##XX
종횡비
004
상방향
'(
##너리
um
코로나
마르
##계통
프로피오네이트
중공사막
##바실러스
##분열
릴리스
상동성
##imer
전주
선도
꾸
유인
하프늄
Tw
얼마나
퀴놀리닐
멜트
외부공기
service
저밀
##피리미딘
탈지
##장소
뉴클레오
##나프
##발효
BI
##로시아닌
##타디에닐
##elf
데드
##NO
랭크
직급
방향제
접합면
반력
Po
QR
NE
조정기
오랜
아파트
테리
##종양
전반사
184
##크림
VM
##amb
브라운
무기질
Circuit
자가면역
cycl
치약
돌아가
쿨링
##막대
FEC
고정홀
프릿
준위
석재
##NR
##수신부
##변색
생긴다
탄발
이리듐
##kg
지오
설폰산
글루타민
온도차
아미노프로필
습니다
역경매정보
##녹살
##혈구
exp
메틸티오
+/
DRM
she
Molecular
끼움부
##IFO
패러
##par
부분입체
디클로로페닐
포르밀
##단량체
인물
전방부
아르알킬
HTML
좌판
다섯
##양자
고혈압
연비
캐패시턴스
##rag
적산
오토클
##커플
기액
아무런
파종
Eth
피브
음각
간염
담보
부착부
방충
덮여
토폴로지
##agg
만곡부
바를
반사막
mT
전역
태아
##때기
HL
액정셀
하부기판
band
##행정
##aving
작동유체
##수증
지진
광전자
바라본
광경화성
아닌지
독일
Int
Torr
SK
실내공기
방광
Mb
피험자
Apparatus
드리프트
미들웨어
##네이터
조밀
##절단
##크로마토
147
##머리
ob
이펙터
Random
##Fi
상압
부과
알콕
##미스터
리스
196
패턴부
재개
프리폼
이송수단
##저감
##pment
##ynamic
phenyl
전자총
##Ti
재킷
306
전자선
NOR
합지
분해능
eth
##폴리실록산
##스테아
##패킹
트리밍
effect
진균
수수료
실링부재
##ching
TEM
척도
부스터
##ins
##ysis
공기유입
##vic
프래
타측면
공정시
치유
##ITH
불법
원점
설문
팔미
전방측
glass
합성수지재
직선형
##강화
미끄러지
do
출금
192
부유물
Gene
MCS
저항체
피페리
회로패턴
##설파이드
체온
vir
Ul
시뮬레이터
밸런싱
밀리미터
천식
풍량
##ding
세척액
PCS
##GSN
##resh
720
액자
##ates
재충전
MOD
PAN
스팟
스퍼터링법
케토
배합량
surface
스파이크
VD
liquid
##조명
##갈륨
산화철
##84
뉴스
244
참고문헌
보론
핀치
설치부
해치
비트맵
제출
대금
흐른다
결합홀
양수
자판
분기관
매출
켄칭
##hydro
TTI
진료
셋탑
안정기
##onent
##안료
살펴본다
동작상태
충전부
wh
##onductor
hole
공급구
프로필기
##oop
풍향
##이스트
형상부
이동수단
냉동기
캐쉬
##레이스
럿
발췌
클래드층
PUSCH
닥
##Mn
등록번호
마루
비특허
##라마
탄산나트륨
이동상
##흡수성
외부전극
고출력
315
발광체
ang
##anol
information
비만
챔버내
가한다
##usion
하우징부
안트라센
구부러
rec
Cy
##알릴
보강부
프로그래머
막힘
결합수단
메일정보
head
직급분류정보
훼손
파일롯
귀환
티아디아졸
전등
더스트
보이드
FIFO
##플루오로에틸렌
감긴
139
open
멜라닌
곰팡이
상정
피할
state
Multi
풍속
윙
복합재료
화학기상증착
##롤리
##이음
DAC
키나아제
##band
이젝터
조여
중합효소
##read
Boc
최단
##호퍼
테트라하이드
Sl
Internet
스테르
전후방
등가물
리신
km
포장지
##라노
무거운
##val
대입
##목적
##기적
source
면내
요오드화
Communication
탕
차별
지지수단
##소스
##ster
탄탈륨
IGF
spp
고정공
##rit
연결판
색조
피코
매거진
193
결손
청결
원할
그리퍼
연결축
뉴런
엑시머
카바이드
정한
##온다
재생기
포지셔닝
역가
깔때기
오작동
토금속
방위각
대면적
950
충진제
가동부
표식
인프라
블로우
임프린트
##분리기
##orph
평상시
free
##디이미드
##ont
도우
지환식
광검출기
##케팅
뜨거운
인라인
만니톨
상등액
인증코드
##CVD
점착성
재난
##메트
##라이너
##지지판
기원
커진다
##SM
##uk
##약물
##attern
kV
제어유닛
글루코오스
OA
방부제
##저온
계란
시추
코팅막
공존
##테면
무정
수령
이를테면
입구측
##emiconductor
##감시
FE
Cancer
수분산
##ufacturing
신호처리부
응용프로그램
ISP
QAM
벤조이미다졸
##생성부
same
힌지핀
사이클릭
##ELL
##네스
매연
결선
방사형
리포트
퀴녹살
PTC
##클로저
하이드로겔
와인딩
##스테이션
감성
엇갈
##줄기
가열장치
시그마
##인터넷
##NAL
chip
하이드록시페닐
노볼락
dl
인위
tra
코어부
##ease
집진기
460
산성화
##tex
Node
025
황화
##할당
##첨가
yl
트랙킹
Appl
각도조절
Ep
Rev
카본블랙
##메뉴
WiFi
마취
as
팽창밸브
검출수단
동위원소
검출신호
고열
Crystal
cd
red
버린다
몰탈
조정부
mJ
획기적
##URING
전측
##부틸렌
##TER
material
사망
꼬임
등화
형틀
셀라이트
플루오레닐
아르기닌
지나가
처리량
리지
미드
##eration
##지지체
전기자
형광램프
DISP
##amide
열융착
##ATING
부양
##umn
에틸아미노
##실산
##조인트
##97
image
Plasma
반감기
coli
느슨
토끼
##브레이크
숙신산
제어밸브
포개
NV
숙련자
##아암
급수관
##질화막
MMP
체결홀
chem
클수록
상청액
대전방지
겹쳐지
밀어내
갈락토
404
##pro
mo
광빔
베젤
mp
##설포네이트
수락
크리스
##ope
##ically
number
잔디
제너레이터
보상부
##PH
##전선
##관련
생쥐
비자
##로디
술포
전동식
주쇄
##22
리타
온실
긴밀
조리실
혈류
Vg
EGFR
##망간
제약학
완충부재
link
##istant
oper
##LT
정위치
Group
히트펌프
전압원
##미생물
마치
양성자
##벤조에이트
정역
##메터
암시
케이
전극조립체
Hand
GaAs
트리에틸
실용신안등록
관찰자
트리페닐포스핀
Trp
육각
참가자
##타슘
프로드
##수명
튀김
ADD
포설
수립
##상기
##공개특허
열에너지
쑥
코코
동심원
이른바
Min
제제화
##cg
##타리
시간대
##기재
##타이트
플로트
##omyc
##Me
대변
##아크릴
188
CCTV
폴리페닐렌
##lexible
##지라도
화장실
##혀진
Add
관통부
공칭
폭기
ESD
##indow
##멀티
대퇴
##CA
골조
Packet
##ICH
##쿠션
포텐
##arch
신청정보
트럭
밀폐형
스프로킷
장변
가슴
##객체
습윤제
휘어지
Vp
##밤산
there
컨버
회생
##drich
PHY
##ponse
##ica
자루
##occus
오토클레이브
비닐하우스
옥세
유리전
헤파
##바로
짜
피그먼트
떨어질
기화기
허혈
떨림
##더리
CONTROL
적당히
혼합가스
클래딩
##에프
gate
애드
소다
##배향
##라스틱
##ward
multi
##오르
well
촬영부
가져야
격막
Biochem
##면상
##도로
보호범위
BSA
한약
피부염
응집체
아세톡시
##좌우
BH
물품구매
흡입력
키로
인너
##아닐린
개폐부
통체
서류
토글
하수관
쏘
초기값
지환족
Labor
EtOH
##베이션
##포지
##alt
HLA
탄성중합체
파동
음압
비저항
스테이트
Deposition
심박
##아세트아미드
beam
##사카라이드
알파벳
중재
자기력
응급
프리젠테이션
##장력
펜타플루오로
비접촉식
##디페닐
##37
고분자량
네가
테스터
맞대
단위체
##ournal
228
대나무
테레프탈산
페이즈
##PP
fo
Port
자일렌
컴프레서
스타일러스
##lection
업계
SSD
켰
트윈
##턴시
HCV
##브산
리저
삭감
브라켓트
##aser
##row
문자메시지
Sec
자유단
퍼플루오
##링부
디플루오로페닐
이량체
입력수단
##ino
염화비닐
알카리
GE
##반도체
재결합
##Fv
방문자
##방지장치
유제
벌브
웨스턴
VG
UMTS
양파
##회원
##랄킬
##삼투
디에틸아미노
At
agent
value
드레싱
유전체막
맥락
외표
밴드갭
우레이
출수
비표시
예측부
##디움
즉각
비금속
##ART
소르비탄
베벨기어
지그비
"),
신원
SUB
전해질막
*,
##피막
연접
Part
##66
인테
##ved
관계식
보존제
흘려
top
연결봉
유압펌프
집열
부가물
미토
페일
검출장치
carb
액티
걸린
재로
501
바이너리
분사기
##진균
퍼옥시
##폭시드
우측면
아미노에틸
개조
혈중
##언스
kgf
내수
325
세로방향
착탈식
지지력
자이로
격판
이동방향
충진재
탈보호
##VA
스파크
평균치
출구측
기탁
데이터신호
합체
##ECTR
1994
##hyd
에칭액
Des
반응가스
Area
′′
블렌딩
그레인
트랜스포트
되돌아가
뚜
멀티플렉싱
##때로
상태일
지지장치
##피스톤
렌즈군
VO
분당
##트랜스
##oy
마케팅
혈전
##그라피
트리메틸올
시사
710
상거래
##ulse
RES
로고
유실
area
edge
열교환부
코니아
때때로
ins
##ression
##verse
RM
안전장치
아제티딘
##매트릭스
치우
스크러
견고히
탄지
돌설
##aling
Pharmac
##정화
그렇지만
뇌파
##rough
##는점
##oma
Gu
전계발광
OT
가죽
Natl
att
힘들
##Fe
돌리
공조장치
Vb
아토피
##이상
RAT
##스트리
##진공
234
락토바실러스
부탄디올
Reg
헥사메틸렌
광개시제
##렉트로
##화폐
빼내
돌연변이체
탈수소
10000
삽입체
Key
ident
Silic
기점
예외
부채
전자렌지
포타슘
트레
폴리부
##ros
광역
##피노
일정거리
buffer
헤드셋
적혈구
##PR
버터
nucle
##ehicle
TGF
##활물질
수온
##제어밸브
##픽스
조명기구
후방부
결합시
##포밍
##ormal
피에조
구연산
##ero
처리조
해동
니트로페닐
##ural
수시
##ete
후미
##데카
SNP
##변위
수산화칼륨
직선운동
결로
321
이동은
보편
발바닥
BY
##호출
임베디드
파킹
완구
기도
##ume
코너부
옮기
미친다
상기식
Tb
사판
교호
aS
연도
MBS
제어시스템
##개선
캡처
현미
드릴링
게터
인터랙
##모세포
##후크
누설전류
인다졸
손톱
장벽층
연결편
통신장치
일측부
pyr
버려
오버플로우
감지장치
급냉
아라미드
mV
어큐뮬레이터
여닫
Cap
각자
억지
방범
파트너
피롤리디닐
주민
유압식
CAN
polymer
내관
연결수단
WCDMA
##보일러
##공사
테크
다이클로로
운영서버
네가티브
체결볼트
안드
뒤틀
연소가스
##틸레버
실시례
떨어진다
Aldrich
직육면체
Immunol
빗살
어회
접착부
마이크로컴퓨터
##orage
mPa
직류전원
알긴
추력
내설
서열식별번호
Gate
주물
ATP
원천
based
삽입물
##스카
##사자
퓨린
##절감
전해조
##fl
묶음
모노메틸에테르
양측부
이라고
에지부
겨울
축심
펩
종점
015
앨범
CoA
el
축전기
탈황
약해
pM
##시기
필기구
242
개발자
발열부
게임기
솔라
증분
식물체
일탈
카프로
주파
광케이블
궁극
##RI
루버
Cal
공기청정
는다고
INV
##way
대식
미스트
중계국
##압착
탄산염
##ump
엑세스
Term
설치상태
절삭날
모방
실시상태
유기성
비어
과산화물
개입
결과값
##비신
##포린
다루
정부
레시피
팀
트러스
카바메이트
차가운
츄
점프
제어명령
틱
버퍼부
승강기
복합물
염화물
혼잡
##그라운드
##기지
mAb
DN
##ycle
2500
표시소자
322
노멀
베이크
##UCT
Ib
입구부
럭
치료법
CW
파선
생겨
선기어
외장재
카페
인터넷망
##니스터
##시료
반시계방향
프탈산
진퇴
지연부
Global
소포제
inc
비강
정류부
스피드
접속점
##브릭
레코딩
##스티딘
VT
교류전원
WS
결정화
Vir
차축
Point
내주연
##reg
##rel
허여
스펀지
랜딩
평면부
영상표시장치
낚싯
과전압
##클러치
원격제어
끼운
##단열
피측정
온풍
173
##코스
##national
열수축
초미
##보스
인증부
텀
지하철
그룹핑
anal
피딩
##ulator
1300
##pling
어려울
미만일
토출부
먹이
다항
아이덴
해머
Journal
헤테로시클로알킬
mot
##izer
TEOS
##콘산
불용
실크
카바졸
사무실
에멀션
BET
메탈로센
해쉬
압력차
저장수단
굴절률
308
##보기
디스크립터
하부케이스
시토
서브밴드
저분자
감합
flu
하이드록시프로필
##코커스
응집제
회전구동
부스트
##PSK
149
##반응기
프리뷰
MANUF
##ux
백색광
제직
락킹
안티몬
사이클로펜틸
##끝단
제거부
액침
##거시
꼭지점
피쳐
내려가
위치설정
##LAY
정련
하방향
외부기기
disk
탄산수소나트륨
해지
218
##vices
구동시
182
측정방법
고정식
통합단말기
Tele
불안
콘베
소르비톨
취득부
##ft
bs
구조도
걸쇠
유니버
##sch
방호
008
정차
공기량
단절
communication
IA
##andard
내후
##노광
*)
카르보닐기
융착
MANUFACT
view
제공방법
아데노바이러스
##astic
switch
##절기
oil
생성함
상주
##파라
##입부
푸리에
가습기
DMEM
였으므로
발수
사과
랙기어
MEM
유동층
##나스
side
흡입부
169
##커플링
##잉크
돌려
로트
ACT
314
캔틸레버
파노
##로즈
지침
PLA
FAB
단결
가전기기
더욱더
장착홈
운동기구
캐니스터
현황
비장
##에도
VCC
차등
쇠
실라
다형
생태
최대치
##AMP
후면부
주입기
원자력
로드셀
자동변속기
참여자
릴리즈
쿨러
빵
다이나믹
THERE
pass
착설
오르토
Electro
우로
Down
##도료
샤워헤드
출력측
성형장치
융해
채움
폴리비닐피롤리돈
디텍터
재발
##추적
캐스터
조미
에어리어
ratio
편파
산화티탄
가변저항
연마제
작용제
증명서
수신단
버팀
##하이머
##도관
조화기
지로
회분
하형
##가변
장전
##아미노기
Tris
##link
디클로
403
반지름
딱
게시판
성형부
사카
소정시간
##주조
미백
섭씨
ORF
##저하
##알라닌
승화
알루
KS
##감응
축설
역학
씌워
수직축
우선권
##러블
##poration
IPv
디하이드록시
계량기
합판
이오
이산화규소
케미칼
친화도
완결
상부판
실험실
입체영상
181
630
테트라하이드로퓨란
##복실레이트
##노브
요홈부
티브이
광투과
상형
경계부
RG
##등록번호
all
crystal
간략히
##카르복시
독서
해준다
레지
네임
외부서버
##rib
팩시
ap
dt
진보
변질
타인
ste
양산
출몰
신생
brs
섬유상
##CL
산가
유한
##꿈치
##전반
암모늄염
수평이동
가족
트레인
module
물품구매금액
Tc
투명기판
=(
비율금액정보
##PO
아조비스
316
##테로
링크부재
방지부
화학요법
MIC
음영
발목
##실시예
502
Ap
##봉투
##라스트
엑츄에이터
피스톤로드
##환식
정공수송
급탕
아티
어려우
##프레스
하지
키이
서보모터
이산화티탄
##그래픽
레이턴시
염화메틸렌
절결부
마이크로캡슐
한번
코스트
패밀리
236
팩시밀리
다이스
비오
본고안
gu
인쇄물
작업시간
이형지
오니
베이스플레이트
걸레
방사능
##저장탱크
복조부
헤테로사이클로
we
하부금
하이드록시메틸
SPS
지의
AU
캘린더
##디스플
카탈
아치형
소정간격
준하
##판지
##입경
##아노
베이스밴드
##그래프
specific
##고정구
##방지부
OFDMA
분열
엔지
음료수
##MN
보정값
나빠
주일
접촉자
그물망
중탄산나트륨
굵기
셀렉터
시험기
##주택
##감소
상하이동
컴파
아이오
호형
좌측면
해외
분석물
승온시
부가정보
차음
processing
carrier
##재배
보일
anti
히스티딘
석출물
일함수
##믹산
##도마
직관
##ern
전자레인지
##프로펜
세로축
+(
비행체
##icator
오실레이터
RTP
트리거링
수법
시분
Switch
스톡
개폐기
네오펜틸
간장
-{[(
정반
%.
##키지
서치
브리
커질
딘
Del
부르
섬유아세포
연부
트위스트
덮개판
심리
이축
주어진다
통기공
페니
증발시
card
magnetic
##티딜
##uble
세부사항
술페이트
current
##카르보닐기
##댐퍼
동력원
##ishing
Vc
BE
브레이징
도플러
대여
CX
##63
브롬화
당화
##석회
금전
Vapor
원터치
##그릴
업소
mass
##ococcus
대수
단변
##크부
성형틀
##릴렌
##대기
##운트
MTC
##비드
난방수
유리창
에티닐
노란색
엔코딩
내측벽
광경
시클릭
cle
무료
항암제
그때
연소기
275
인수
미팅
배상
Dif
##소모
거울상이성질체
였음을
호기
##udio
나사공
프탈로시아닌
365
특개평
하역
질소가스
프라이머리
WITH
앞선
##ICAL
리프터
##volution
SRS
가열수단
바이오마커
Mon
##idth
식별번호
적극
순환펌프
폴리알킬렌
질감
209
AGC
유해물질
XV
##HR
슈도
random
##iaz
리디
다이플루오로
##백색
##배출관
VCR
##기스
##루비신
##엔드
에너지선
경사판
Vin
주행중
##본산
패브릭
지관
수입
부를
one
딩
차감
저굴절
disease
판유리
##종료
178
##격벽
OX
이거
명백히
탄성편
라운딩
폭넓
##회전축
지터
##통제
enc
진행할
상부기판
gas
피검체
몬
##플리케이터
외부장치
lock
폴리염화
보간
191
##ou
Inf
다항식
제초제
산화알루미늄
무선망
##idine
유가
AMP
항균성
열려
ICP
트리플루오로메톡시
te
고갈
할로알콕시
베리어
촉감
협동
납부
##비티
남겨
##VC
내식성
##anth
결재
##DI
히드라진
##관리서버
칭량
듀티비
single
세륨
##파제
##티오닌
블롯
치매
호흡기
##라기
안장
##뉴클레
에너지원
명도
발전장치
코킹
총합
명암
검파
##ware
Set
일렉트로
PSS
##opy
und
아랄킬
tw
유기발광소자
정현
불쾌
레이스
브래
##토출
##MF
나프티
SCH
후부
위조
제조자
방어
"~
자금
도표
##마티스
알레르기
압축력
##perature
##een
남기
FBS
진공상태
Form
스테로이드
디멀티
믹스
측량
입력전압
프리미
##들중
##utter
판체
##바륨
##질화물
##조절밸브
PSTN
##ergy
디브로모
##seud
떨어뜨리
서브유닛
Clin
곧바로
고주파수
들어갈
코팅법
단핵
극판
IZO
달라진다
연결핀
176
펙
GI
광기록
PVDF
cells
##튜에이터
238
capac
압송
1010
##인터리
##프론
ethyl
이동량
##할때
##WB
등록특허공보
##프터
과실
Phot
atom
차단막
레거시
합리
##통공
ion
디아조
차단층
##SS
저융점
##콘택
##ade
##inding
혐기성
##ences
유비
설포네이트
412
##figuration
수순
Universal
분무기
index
무균
##itrogen
313
차단제
리액터
이음매
##뉴클레아제
래디
생길
241
##FL
##파괴
##증식
##마틱
퍼팅
봉지재
##ybrid
전경
계산기
##stit
헤드레스트
통신사
얼라
질량비
화도
##ors
##론튬
지각
증거
유기화합물
청크
##테일
그라파이트
연결체
헤테로사이클릭
hex
알킬옥시
하이브리도마
LPS
Publ
카프
pin
유상
머플러
교란
아세틸렌
추출기
농작물
정압
BSS
세컨
물방울
항염증
IPA
560
아이덴티티
발표
Metal
ext
전복
##삽입부
펼쳐지
##크로마토그래피
##란스
Ref
##alk
cat
에이징
##크롬
연이
밀집
##jection
부유식
##41
Up
##절차
##rite
Corporation
LI
압축부
##배수
쓰이
보리
EVA
녹이
포털
취수
EG
##이부
체임
##티온
접히
UDP
공전
분량
맞춘
##트리메톡시
분산물
오르가노
덧붙여
##식별정보
##사제
이동거리
천연가스
IGB
map
##scr
cond
USIM
금속재질
리포터
동작모드
##팅부
구두
대단
바다
THEREOF
코디
맨드릴
mobile
IO
프탈레이트
177
WA
##OCK
하이레벨
헬리컬
##혈청
##차단기
EUV
International
ent
단추
##집합
임대
REF
나프토
머니
보호회로
스퀴
color
##era
##면측
##스펙트
옴
##지반
침식
##벤조일
배압
SnO
공급원료
Emitting
##use
주편
레인징
유수
수시로
##수집
252
CAT
관광
커버링
XRD
Chip
자격
##PT
입방
두피
##거울
히스토리
솔리드
편직
바르
##주입구
Broadcast
##측정부
##권선
FDMA
고굴절
파노라마
248
약리학
##uro
시킨다는
삼투
올바른
히알루론산
저저항
분쇄물
제작방법
PAGE
마이크로렌즈
히스
과발현
##ipe
외상
룬
디버
##rane
트리메톡시실란
회전중심
***
서방
키토산
Only
유리관
IGBT
트랙터
생체정보
가공장치
결여
공단량체
보호커버
640
트리글리세
군집
펜타에리트리톨
##샘플링
GPU
아실기
복호기
411
생산량
페룰
경품
자국
##플렉서
alk
인터벌
##계산
수납공간
MANUFACTURING
##카르빌
각부
잔액
##ister
부틸페닐
##형광
배신
캐스트
##체어
글라이
폴리아민
##off
산포
Fm
시계열
보로
비지
아로
저면부
전기도금
망상
기저부
데스
재기
투수
품목
##피란
디일
전압레벨
메톡시벤질
직류전압
ELECTR
스며
Electronic
1993
##티컬
실링부
수직프레임
cross
미립
들어간
ring
에톡
##스테론
식사
##ACC
점착력
계측기
압축실
HDM
##상선
빨라
##CTC
공여체
발신측
전구약물
##IX
생명
##펜탄
전자제어
브랜드
크래들
타방
복호화부
담황색
럴
쥬
지상파
감지수단
상관없
##IVE
265
##프로피온산
스킴
##시키가이샤
##42
Non
MIS
인과
인스트루
단섬유
양립
생약
가해질
전자수송
자발
크로마
아일
절체
감수
루시
비즈니스
폴리락
scFv
일으켜
##전해질
##echan
양질
시클로알케닐
##ract
논문
인덱싱
유료
주행시
bis
##물쇠
##인터페이스
매매
조향각
##계층
시트레이트
해진
##land
##스틸
병태
중추
공통전압
접힌
견디
Sur
GFP
백혈구
##67
라이브
담금
TY
지대
##omet
vi
2015
알킬화
메틸에틸케톤
노말
##활동
DISPLAY
Multimedia
유해가스
##osc
##요크
##모나스
석션
오더
터치패드
tri
희석액
관류
':
뒤따
유분
거절
옥살산
##록사
유기금속
##etooth
연결부위
BTS
세미
##광선
펠트
타임슬롯
다이아프램
##원통
철골
설파이드
옷걸이
##티콘
##먼지
파인
퇴비
아밀로이드
향후
폴리테트라
힐
용사
user
##정상정보
Physical
경사져
용융점
그레이팅
디인터리
둘러싼
결제선
gr
받아들이
페닐에틸
수상기
추첨
고전위
혼합용액
중국
품종
제지
정회전
##iplex
루멘
다목적
251
이상일
역양자
이소프로폭시
모터축
##가입
싱크대
feed
##할로
고역
유기용제
쓰레드
전송로
Base
양각
thereof
로션
##셀룰로스
담겨
래치부
##otal
Kg
##RP
본원발명
폴리뉴클레오타이드
비수계
은폐
배출량
공정챔버
힌
스테인리스강
##결제선택정보
젖산
텐트
eN
최후
에폭시수지
Mode
##39
##uck
SUS
##enn
167
hand
기계실
diff
조수
라만
상부금형
결제정상정보
파라메터
PSA
변조부
디스패
핵연료
연마재
+]
##퍼옥시
전광판
Message
그럼에도
여과물
총칭
앵커볼트
##할인
벤토
Cat
##수준
수지상
양말
질소산화물
도면중
사포
도어록
간세포
씨앗
즉석
염화수소
226
잔부
##삽입홈
Graph
가압판
한방
##aceut
측면판
발광장치
Acid
안내판
신문
항시
시력
##복합
알츠
슬림
압연기
난류
##쿠스
수류
광고판
##zym
박형
건전지
##ocy
취성
서플라이
##ger
팬티
하부판
게재
알츠하이머
리크
Va
##수행
미미
mesh
침수
##its
화폐
##hanced
UH
학교
##탐산
결제금액
간판
암나사부
##강도
질화갈륨
고전
윈치
전산
식각액
프로피오닐
논리합
손바닥
화성
Management
모듈러스
multiple
회색
면역원성
##토시스
요입부
위치결제정보
항법
디에틸에테르
탈모
식별코드
용접기
레이크
그려
dimethyl
고용량
단단히
##바이더
##연결구
tR
기사
방청
걸고리
갈고리
정방
이동시
##강하
short
대식세포
피펫
조리용기
로듐
##물품
Diode
메톡시메틸
크산
면접촉
##게임
##간섭
라이터
방열부
건조실
인덴
발하
가이드판
헥사플루오
##리스트정보
Media
클리너
연결선
Wh
옥외
포텐셜
포워드
470
전조등
가이드롤러
TW
##측정장치
##증발
모이
맥동
인지질
연결바
블랭
##바스타틴
##분위기
닫혀
트리에틸렌
하이드록사이드
누름판
재귀
mil
##88
##티올
공회전
히트파이프
에스테르화
출발물질
종동기어
방류
박층
극저온
column
##aag
투명도
안개
##TG
FAC
부패
제거용
GA
수직면
두드
##ersion
탈출
##꼭지
스페어
산화규소
Bar
번식
무빙
Block
랭킹
##aper
##wth
##관리부
CTL
취출
백그라운드
축공
연고
섬광
##갈색
다운스트림
##멜트
패딩
##이션층
퍼옥사이드
배전반
상층액
tetra
마디
저널
덤
##EX
matrix
보낼
전기방사
##클램프
말레이미드
##obacter
프래그먼트
##생산
캐리
전원공급장치
침전조
실험군
더구
##포저
혀
##asc
CNR
##다아제
##ified
##정수
감김
NCO
경통
Cb
자동판매
발생량
페리
##태그
원환
##블레이드
물기
곱셈기
LSI
입자크기
##ench
회전날개
ACC
Tin
##류기
##ley
고정바
159
DVB
##커버리
검사부
관례
소용
정현파
##르트
히드라
여겨진다
어태
색채
세면
##보트
광변조
대책
조이
1990
매개체
섬유질
선분
##초점
헥사플루오로
데스크탑
상품정보
걸림부재
신고
실린
콜리메
블랭킷
504
상면부
표시창
부서
더구나
GLP
카르바졸
020
안테나부
반사율
##통신망
지지플레이트
대단히
작동가능
PROC
##OX
mW
pot
Request
창안
##이체
COD
아웃터
자물쇠
##불화
인해서
307
##오네이트
펜스
##YL
Film
무기산
면광원
##패킷
블러
##필라
내화물
진공도
피니언기어
여름
오퍼레이션
##agn
##아짐
체험
발가락
양측단
computer
발열량
내의
알킬아릴
mb
플라즈마
소화기
둘레부
##대사
radio
##나이
카드발급
액슬
거름
따뜻
음용
##chron
##irst
##공급라인
해방
##설페이트
등화기
PIP
##ABLE
셀렉트
결빙
결합편
##oe
냉연
조업
##어드
183
TRAN
커뮤니케이션
HMD
##aster
합치
cut
두꺼워
벤조푸란
육각형
출혈
##luc
from
##화기기
##장형
야외
##양성
상부케이스
경비
블랙박스
플루오르화
에터
프로피온
##리시스
194
##acrylate
##scriber
인화
##사점
영수증
전자사진
Module
디아크릴레이트
##iod
UN
UTRAN
경시
보호부
##제어수단
토코
대피
트롬
##VER
##피복
SEL
##분쇄
##독성
스티치
한하
##Ge
제법
적층판
-{-
##릴기
OCF
은닉
계절
채운
TDMA
##버트
Rel
Vout
RU
베이션층
contact
##duction
트레일러
놀랍
세틸
##ides
검출가능
내인성
포유동물
동부
terminal
##플라틴
개폐부재
비이
결과리스트정보
외국어
경보음
##쿨러
##유출
미처리
메티오닌
233
##ohn
열경화
panel
DRX
황화물
내이
히스테
##손상
공기흡입
알아보
경화증
작업물
기단부
##agen
##BR
처리시
direct
##등록특허
SET
고체상
분류기
interface
##55
部
재현탁
##반부
진핵
게끔
ns
징후
Pol
연결단자
##글라스
등록실용신안
FRP
331
블랭킹
형성시
냉음극
물받이
스마트카드
메가
일으킨다
rep
직하
##비톨
스파이럴
직결
보론산
에워
취합
이소티아졸
##tual
##gtt
트리메틸올프로판
##TING
조광
겔화
##sa
가져도
##안전
이송롤러
코사
분류검색
핫멜트
음이온
##atin
활발히
진피
불러
크릴
적층물
##VING
##ITION
Sa
폴리아믹산
##Hg
혼재
실례
늘리
테라
오늘
601
AE
희생막
##iph
리저버
##조절수단
spect
연료분사
와이어로프
EI
흡입기
Not
##athode
상부커버
반하
스토어
부른다
##제동
기준신호
캘리퍼
LPC
표백
compris
프로그래머블
아세탈
기관지
전송선
Indium
stream
크레졸
##).
##고정판
미끄러
JPEG
유류
Lact
##기름
간격유지
##ameter
SER
PES
케어
Ha
급여
액튜에이터
##메탄올
##레인산
243
제일
단위셀
step
CONH
절연부
초순
상보성
거치부
곡률반경
내후성
스패
줄임
사후
406
그라우팅
가위
브로모페닐
영양소
아릴옥시기
열전대
도포막
Mc
횡축
계지
페닐알라닌
그라인딩
##ZT
##ove
아다만틸
323
타우
정당
하부프레임
##lectric
보철
분수
회전요소
sin
Do
청색광
휴대단말
##컨텐츠
저장공간
Sens
##매틱
하단면
법인
현탁제
조타
##유전율
센스앰프
벤조니트릴
ray
TMA
운반체
##스카이트
설치구조
다우
도전성
Gr
교차로
스카
Phase
항바이러스
노인
deposition
냉매관
imp
##구경
##ront
보르
차후
전자화폐
사정
프로판디올
##옥탄
입력값
표지판
매몰
##연부
1991
##헥사논
##embly
광조사
헥사하이드로
자켓
수회
자동판매기
쇼크
강우
가이드바
수크로스
Advanced
##me
##세이트
##IDE
position
우라
류마티스
제설
버켓
##기공
축조
##방사선
출력장치
All
실효
엘보
클라
님
인구
태반
알카노일
펄스신호
아스코르브산
어레
터치부
소매
수형
##KA
화자
End
용기내
시간차
고집적
계기
전원장치
자갈
York
##이도
여과지
##중계
밀대
body
##이득
미끄러짐
허니컴
1400
단턱부
Methods
채소
도르
186
##어질
##로락톤
육상
011
소등
이져
토산
path
버튼부
1992
##말뚝
생선
올리고뉴클레오타이드
가부시키가이샤
은지
반사방지막
##마찰
##회동
생화학
##omatic
이격거리
##aceutical
region
커넥션
nd
##누레이트
##마이세스
##유기
창구
캡션
중축합
이소프렌
수광소자
##icture
##44
유기발광다이오드
뷰어
kW
중합반응
소비량
폴리염화비닐
검색부
들여
올림
217
촬상부
메톡시에틸
LG
##ely
##과금
질량체
보호자
달린
##nt
순번
비반전
질화규소
쌓이
친수
##roph
rot
인테리어
배가스
##BC
감겨진
고정나사
##수위
섀도우
We
체임버
##필라멘트
##비시클
##절곡
리놀
페노
##변환기
##피린
##사리
온도변화
##omain
인클로저
##요홈
programmable
헐
STI
##Ni
eNode
메톡시카르보닐
sequence
절단장치
스미
소정위치
매끄럽
비트수
보체
##hib
##행렬
개구율
회원정보
내진
핸즈
밀가루
조립시
##펜타에
##퀘스트
리버스
개폐판
##디옥시
component
Gd
프롤린
이중층
절취선
PMI
##ption
교점
빔포밍
##비교
인슐레이터
가함
커져
공연비
hard
워크피스
인젝션
고강도
잠수
깃
스테아릴
wave
리튬염
솔더
HDMI
단일클론
단색
PTT
##아리
##23
PAR
##급기
벤토나이트
아미노페닐
조명광
들어올
탈피
Bluetooth
모선
건선
##항체
##안착
오폐수
재생부
골판지
Max
sil
입설
##니시
막히
법칙
전로
##earch
pos
히스테리시스
분류검색정보
##업소
유착
##천연가스
Technology
505
##배터리
##수량
상부프레임
입체이성질체
##ike
굴삭기
구경
추측
##ving
##어넣
Air
유색
에틸렌디아민
둥글
mix
##올레핀
입력창
##ipment
fe
키입력
초순수
포락
##omon
coating
라이신
릭
237
TU
연필
치명
가져온다
놓여진
사출물
예각
추정기
not
고집적화
ARQ
FDD
##SF
Tem
황산염
글로브
진성
교환국
Test
Os
져야
주소록
디퓨저
##기전력
시켜도
810
##오즈
##촉진제
전극간
충돌시
Log
Spec
##구니
택배
##아세탈
pattern
SCC
포토레지스트막
비극
조대
입자경
PROCESS
##볼루션
##알칸
##ba
CAP
모티
말토
일렉트
판형상
##궤도
모으
##ociation
철도차량
데칸
중앙부분
측정시
스큐
역률
초대
정공수송층
송신자
##세기
꼭지
DPC
PDCP
##경화증
적재부
욕실
##phone
##게나제
착즙
##교정
연합
장신
완충재
무해
실명
##elt
229
address
##PF
##Ox
##HA
휠체어
LV
이음부
단상
변한다
베이스부재
녹여
절개홈
대조구
엔진룸
##빌라이저
HN
차폐부
광파이버
섬유증
##istance
239
gap
루이스
망사
##탁셀
sodium
Bacillus
비선택
초경
고유코드
VE
받침부재
메조
##은색
Web
##테리
감열
##박터
acc
리얼
bond
주름관
##조각
##upled
작동레버
메틸피페라진
소정값
touch
부피비
##커넥
절단선
mechan
offset
##넌스
스프로켓
##러리
암부
비밀키
##루틴
여재
관람
평균입경
컨쥬게이트
EO
WR
Kr
Frame
##CD
##펙션
332
펼쳐진
이무수물
##스탬
##리스리톨
당류
주입부
##비점
active
승강부
무치환
array
가감
엑소
농산물
로어
##NTI
방오
지지돌기
착층
배면도
신분
##랜트
390
Panel
##력발전소
평면형
돌부
체질
반제품
##SL
모따
목적물
Rem
압전체
쉬트
EU
증강현실
분할기
후기
오피
Ps
임팩트
##플루
물질막
셀룰로즈
미션
클로르
##데스
##lease
저잡음
RW
나눌
중성자
##69
재하
CSC
##AST
웨트
##ah
온오프
콘테이너
##로인
수컷
헤드램프
글리시
%~
비특허문헌
번호판
size
##시이트
아이들
아이솔
레일부
##ety
문짝
차아
판명
ARS
disc
그만
백홀
카탈로그
시클로프로필
역삼투
영동
##ITE
##이핑
PDMS
프리스트
##계획
##발열체
chemical
##판단
Mark
LPG
름
Company
ul
헬멧
피시
보울트
##드리아
산화마그네슘
토우
Biotechn
pressure
DUT
이중결합
##네이
##비례
성향
플루오로벤질
##확장
육면체
구해진
##81
##공학
라지
##embrane
Fmoc
##FN
생강
플레이크
##cription
##IGHT
NHC
RSSI
공유결합
다이옥
정션
채워지
푸마르산
그레
##막염
324
공급수단
연결고리
끼워서
장해
라틴
179
285
통장
광투과성
폴리부타디엔
피지
운동량
EMI
등분
외주측
Hg
협상
Blue
유입공
승용
선국
발생회로
인명
척하
누름부
Ultra
대립유전자
cur
테프론
단기
우세
Dec
영상표시
경고음
아디프
톡
##디쉬
##세이터
voltage
체크카드
RV
+/-
'-[
기분
중증
주입관
##냉식
##gment
클로즈
아민기
##이성체
메틸술포닐
클락
디히드
스펙
지열
HSD
기다
Bas
변의
원통체
그라비아
부품수
응하
코폴리
포장용기
흔들리
이간
##가치
전극단자
##플라스틱
##안착부
내입
이미지센서
랫트
PECVD
##우트
Het
##ura
이산화티타늄
둘레방향
TI
아스파르
DIP
카드뮴
프로톤
중량평균분자량
저항력
##신이미드
##티코
걸이부
##시공
인스트루먼트
##긴다
가공부
약리
프리픽스
인터포저
어플리케이터
thermal
강유전
##struction
입출력부
##Te
수열
게스트
DNS
무게중심
흘러내리
##적층
유기물질
메틸프로필
지배
끼워질
앞뒤
극소
DG
전방향
벌집
프로그램제공
##확대
즉각적
lb
스탠바이
##다공성
##브스카이트
철망
##ery
POI
엘레
##보르
미세입자
portion
506
브로드캐스팅
리치
##imethyl
##och
아카
##큐어
##Br
바이메탈
포자
테이퍼부
세컨더리
정교
##ICATION
스트론튬
실내측
최상단
접점부
뭉
연약
접촉식
번지
헥사히드로
윈도
375
전량
멜로디
폴리카르보네이트
BN
모호
조향장치
헥산디올
래칭
##mp
##reshold
die
##BA
매듭
광도파로
비트열
카복스아미드
##복원
캐핑
조영
실시예인
ax
노나
##로네이트
##위성
프리폴리머
정단
##커플러
##음부
##bin
고안인
##터널
메사
루미
John
새로이
공비
흑색종
##종류
티탄산
내삽
알로
주거
pred
##FS
Gal
ww
롤러부
트립신
재배선
표준편차
##기지국
광반사
활성화제
백화
협대역
응결
가이드돌기
재가열
경면
도판
##INR
발포성
machine
퍼징
##나이저
살충제
##이소시아네이트
##던트
##노사이드
이하일
윤곽선
##공급수단
광학시트
##바이저
##로울러
라미네이션
세포질
성형시
닉
##시스트
##ixel
##돌이
다층막
##asure
##로폼
##나이트릴
업스트림
프로시
터치센서
디알킬아미노
가이드봉
래스터
##판정
돌출편
캘리포
감초
고교
1394
페르
패널부
액면
쌍방향
전자책
KD
폴리부틸렌
용선
1600
디옥솔
투여용
주된
컴파운드
부분입체이성질체
422
##커터
프리미티브
디클로라이드
heat
승강장
육종
##클리탁셀
헌
##레에이트
Ste
XOR
들어올리
트로
##나물
목표값
가져올
##82
스테이플
##inted
AX
##file
##킨슨
Chemistry
##잡물
##어레
rs
줄어든
##제물
트레오
마친
##hol
##스케일
투표
사행
가로축
진공챔버
##iley
페로브스카이트
##토닌
방현
Glass
가속도계
캘리포니아
mmHg
SIR
##안내부
풍력발전기
디메틸페닐
##izing
식각공정
위탁
살균제
중량물
Station
배스
##술폰아미드
소디움
##51
gel
형질전환체
입력측
##소르
##라지드
##선반
격렬
압출성형
##anning
##하이드라이드
##RA
토르
station
분사장치
역변환
포스파티딜
원뿔형
축상
할로겐화물
굴절력
동기식
WAN
htt
매뉴
##측정기
가이드홀
아나
##문제
라이저
오목홈
분뇨
후막
Filter
곡면부
퍼프
구애
국면
센티
연화점
FIL
어구
안내레일
##조리
##TiO
##opper
Optical
Polymer
나선형
인코드
manufacturing
계대
피처리물
직선부
벤조티
모티프
##eta
##ument
##파기
##불소
헤파린
조사부
입각
회신
187
관리장치
등방성
video
약속
기수
균체
직사
토목
결제처리
온도범위
유공
구형파
고정구조
구성품
MHC
퀴녹살린
헥스
취향
##구마
프로그램제공정보
CIR
경사도
분자체
##토출구
라이프
##back
##verter
transfer
송신단
식기세척
드라이어
해부
로로
="
날카
197
Invitrogen
권장
Vdd
##디스플레
RSV
##물체
SiOx
리아
227
##동기신호
제자리
www
스크러버
##완충
##Bu
담당자
퍼진
탄성변형
가출원
##페롤
합성기
°)
인코
##도포
##ample
INS
조혈
##드름
연료가스
##줄기세포
완충용액
급유
글루탐산
스피치
다채널
##벨로프
중요도
GT
알긴산
우울
고화질
파도
파클리탁셀
정보처리
선단측
평탄면
도안
연료량
##막이
TAC
##장착부
시베이
이중구조
##reat
주류
이색
전기전도성
##연소
아마도
##변성
나프티리딘
수목
길이조절
DLL
##ceptor
XI
크리스탈
스와
셀레늄
플로우챠트
##oxide
##BP
발효액
graph
EPS
클로로메틸
##이송부
##고압
정지영상
시준
밀폐용기
WP
비싸
실버
토마토
6000
엔모스
편면
포드
##우드
에스트로겐
포레이션
흡음재
성과
창고
NI
송수
##인지
ct
PSC
융기부
##기포
##older
추락
모사
262
회전수단
부착물
낸다
외용
##복합체
목부
워엄
##agt
판부
한자
CHCl
폴리머라제
##마감
데니어
구멍부
##향상
모체
##...
배설물
이동판
공학
부티르산
노광장치
##외광
VOC
마의
개재물
##발생수단
mill
인터커넥
자른
피검사
And
물고기
##olation
511
So
소모량
배추
503
##내장
겹침
나이트라이드
’)
hal
이송용
매도
설치홈
폐단
##rept
##이스틱
트라이메틸
BMP
문화
펜텐
물림
415
연설
메틸피리딘
407
송신장치
##ATER
뒤틀림
회전드럼
열팽창계수
온의
그만큼
##효과
수강
가전제품
술포네이트
게이트절연막
휴대용
밸브시트
수나사부
##........
SGSN
급성
특징량
##이렌
누락
##raw
형제
Research
Det
DSL
##ceiver
##나프틸
##웨이퍼
local
펠리
급속히
##올린
월등
백킹
##에이
##uz
Synth
##St
광소자
long
렉서
엑손
크립
빨래
모터부
그래파이트
OK
COMPOS
Vt
425
##연신
이트륨
디비닐
데시
##pa
적치
한약재
고립
LDD
저장영역
원주면
##거치
VOD
##타르산
##카락
도래
공기청정기
드러나
마르텐
대용
정공주입
외래
##oxyl
SDU
배선부
##마린
Indust
##ERM
##ye
이방
그외
발린
분리장치
##oprop
##opt
광전변환
UWB
##ld
미닫
Nx
##광부
FV
인쇄법
##strate
토출관
레이블
비주
##ibr
전송장치
흡기구
##말린
착안
벨크로
장르
CAM
##수용액
##plit
맥주
빌드
##도입
##EV
제막
##헬드
스쿠
미사용
하천수
치차
Long
##지정
실체
시클로헥
부적합
##고체
데이터량
Ox
Laboratory
충격력
##게이지
through
##안정제
접속구
##슈트
집계
플렌지
##키트
##포스파
스크레이
##고객
##광학계
간다
wire
워블
AK
심사
수납홈
척수
수지조성물
불린다
결합재
반응관
머리카락
헤모
스탬핑
시그날
##란다
emitting
네마틱
외측부
##atc
##amber
cps
Td
570
780
##삽입공
##MAX
##unter
silicon
갑상선
##설계
sheet
디램
차광층
펄세이터
실세
Amer
Ho
절연재
##ons
PSI
Xaa
비닐기
target
셀로
예컨데
클레이
##유무
편광기
##고정부재
AI
공동주택
어드레스전극
핸드헬드
##교반
##사료
디지트
환부
세포막
리덴
-),
전력공급
##ven
약재
오디오신호
##침전
첩부
기저장
단과
제진
##AK
유지전극
Ob
DBMS
가드레일
배출가스
##변동
증기압
파편
단면형상
서미스터
##체계
http
변형실시
335
관리시스템
끌어당
부스바
##드라이버
인돌릴
##entral
##itis
갑피
움직여
매끄러운
조이스틱
알데하이드
암반
제어가능
알킬술포닐
##가이드부
##유성
VF
Spring
##몸체부
협잡물
의심
##DING
관리기
Bus
폐액
##idge
선택비
압축스프링
SDRAM
완충부
chrom
탄소질
융기
브라우징
전립선암
액셀
noise
과충전
여진다
착신측
1800
에워싸
Green
부착력
계전기
MUX
진동수
그래픽스
보고서
Direct
반투과
나사체결
Sal
흡수율
shift
축물
장신구
관내
주변회로
reference
마가
##모르폴린
고액
헤테로사이클로알킬
운전시
배너
##stant
눌림
헤드폰
##gative
꿀
##vid
##레이티드
##비딘
##OW
미끄럼방지
CELL
##imum
Processing
1989
전자현미경
낙찰
##포스포
메토
판별부
NAL
육성
침상
젤리
이소부티
실란트
액화천연가스
엇갈리
##스페
##opl
이면측
암컷
##의자
아릴렌
##파지
카카
##제작
Programmable
Wide
calc
##acet
배터리팩
부테닐
축산
무선전력
주관
##MENT
쉬워진다
벤조디옥
상해
당단백질
출판
지지핀
분산체
Therm
평탄부
폴리비닐리덴
마름
선량
##erator
##개방
##iving
Number
펨토셀
블랙매트릭스
안과
들어간다
LH
인근
중점
체형
cover
가류
혐기
Wiley
이타
TMS
rh
LNA
베이스프레임
MgCl
언더컷
분사량
##active
탈질
##omyces
Pharmaceutical
##반석
##니켈
전환부
Dm
방음벽
핸즈프리
치즈
회동부
사각형상
합의
판면
OCO
커트
부분품
테트라플루오
트롤리
내화성
Transistor
##강관
IPS
아암부
등록기
Mass
second
hydroxy
통신매체
분할부
##여진
VREF
와이드
602
AAA
COOR
구슬
치형부
외국
list
유니캐스트
##43
인스톨
##가입자
전극막
##스탬프
##au
로진
INF
작동부재
##oder
하측면
##율표
캅
하이드라이드
투시도
진출
발효물
메인보드
판지
지닌다
##카르복시산
안내관
##해서
VCO
실런트
660
NAD
flexible
마르텐사이트
##2)
포대
##NF
운항
인터리브
연속식
팬모터
백본
시트백
##황산나트륨
혼용
접지부
하기
역전사
봉합사
공동부
##수부
CRS
주사용
도판트
독자
아기
Current
합성부
팽창기
이동장
##폰더
##전자현미경
##코나졸
##이소프로필
##yrene
408
니플
애자
BSC
##ze
디글리시딜
REG
알에프
Cn
##ember
##sent
원자로설비
텍스
po
##용융
##친화
##ife
픽스
시트부
그람
중도
브라운관
extra
마더
에프
착하
eNodeB
투입부
디메틸아세트아미드
self
전열관
통신시스템
화상데이터
organic
##계열
저전위
Ic
큐브
원심분리기
행사
교차부
여과재
척킹
프레싱
##퍼옥사이드
ds
환원성
가림
포스포네이트
사시
glycol
메디
Link
PED
309
듀플
에피택셜층
##BI
torr
헤테로환
##이소부틸
##27
철재
헥센
따를
소속
규산염
단결합
##영양
##위상
리이드
근육내
##렛트
그라우트
취한다
계수기
CID
##스토퍼
HFC
MRI
##접착제
광각
AUC
정자
##본드
공핍
인버
아디프산
심선
GST
비시클
구제
##angu
core
매뉴얼
형광물질
Gn
스코
##술피드
length
##ometer
소음기
휘어짐
모집
##슬리브
##감지수단
##어드레스
##iter
즐길
다중화기
여드름
##스테아레이트
APC
YES
##특허공개
##가격
hyp
##할인정보
##enol
조수석
Cas
##imide
순응
Back
호변
줄무늬
알콕시실란
포터
근원
SiNx
DET
##ILE
##amm
##이력
Position
##pr
고양
준거
고리부
TIM
개폐수단
음극판
셋톱박스
콜드
WE
HLR
##신생
블로어
##hes
겉보기
Jap
피처리체
통신기기
선풍기
컨택홀
제한효소
##ude
##테두리
##인듐
##obacillus
BMS
반영구
##29
ball
사이징
운모
레트로
리포솜
표시수단
coll
Input
정화기
공과금
여과장치
Cst
Function
스크래
##슬릿
##iae
기능키
우편물
주상
바이어싱
방충망
플로차트
##에칭
##노머
580
터치입력
머무
Mbps
폴리비닐알콜
tube
##alth
철저
하부커버
양극판
##irection
연장선
Local
IEC
Conn
분출구
diode
할로겐원자
기준면
늄
##STR
진동부
vii
포위
겨울철
지지브라켓
마이크로컨트롤러
내장재
NG
당연히
Open
pK
부스팅
중량체
가라
GOP
261
유틸
적용예
##교통
##글로빈
들러
##스피커
##모형
기후
주변장치
##발진
Board
##hm
219
##제어방법
##고분자
출고
490
##edi
흡착부
감미제
CHF
##iform
##이민
절연물질
##gac
탁도
##퍼라제
##두부
당접
점자
##ICON
processor
주제어부
나노결정
rem
정지부
전자밸브
##마킹
##분비
세장형
쌍방
위협
제어국
퇴행
주정
외광
내충격성
SQ
프로펜
##uced
WAP
리필
Hyp
acetate
GG
이소부
벽지
잡음비
##시클로헥산
곱한
pC
진공압
loop
기단
소스전극
지우
락테이트
코더
폴리아크릴레이트
맥반석
투습
보류
핸드피스
미약
Card
##line
더러
디프로필렌
##로스코프
##침투
로스
vis
resin
드라이빙
##진행
금속간
발생수단
티스
간질
##라운드
파생
들이
##phthal
모노에틸
##sing
카르보니트릴
촬영장치
에리
불능
비선
##raction
토류
생리활성
아미디노
전압차
이동전화
명세
콤포넌트
작업기
##마리
em
디펜타에
pad
##꺼번
한꺼번
##지령
Head
##아세톤
##싸이
force
통칭
CONR
PPS
탈색
스트라이커
종전
용출액
구획부
##cal
문의
##페인
선불카드
병원균
링크부
평단
디이소프로필에틸아민
인계
##fin
심미
조준
하부몸체
RACH
##자성체
승강부재
##식염수
FPCB
둘러싸여
쿼드
##경보
표면부
##ager
도자기
##니어링
스캐폴드
인쇄기
수층
음소
증류탑
행해진
having
수배
##EMENT
소기
Fluor
##opoly
##이미노
밀림
soft
스프라켓
프로페닐
##attery
시클로부틸
flash
아릴렌기
인터페이싱
세정장치
폐루프
포어
##세라
출시
건조장
글리세릴
콜리메이터
규조
레시틴
정전식
모기
웹브
채워져
bre
##트랩
호핑
GPa
미세구조
##실리콘막
Integrated
안내부재
당사자
큘러
열간압연
GO
비오틴
로우레벨
신경세포
TYPE
포락선
에어실린더
##원리
가우
피시험
장쇄
##ession
트랜스폰더
turn
730
스너
board
growth
##오버
##대칭
목욕
재배열
합제
시중
배출장치
절연기판
##에어
MCP
MPU
deg
SAW
dop
칼코
KH
plasma
##거더
무게추
포기
폴리아릴
변속레버
QP
##접종
355
HVR
전하량
환봉
TPC
렌치
##부가
비공
전단력
외관상
PDE
요청자
종단부
바라보
##안경
메탄술포닐
뇨
종목
""
Output
full
컷오프
##메틸기
골반
##acch
심혈관
006
AlGaN
##헤더
NAS
몰딩부
fiber
Pi
소용돌이
##inder
면취
열판
마스트
접촉시
수평축
이질
왕복동
셋탑박스
##카르복실레이트
경쟁력
곡선형
밀착력
신경망
연산기
수요자
##공중합체
910
##증류
State
교합
도전부
##형상부
비전도성
미토콘
미토콘드리아
구동롤러
엔지니어링
##vinyl
##로크
피모스
저장기
다트
구이판
영상처리
병원체
디멀티플렉서
변태
엔벨로프
295
##프레셔
침윤
슬리이브
압접
어휘
gluc
기제
Japan
인렛
수지막
##ological
소각로
불투과성
위도
##inol
핸드셋
node
##ote
좌변기
퍼즐
고저항
데이타베이스
##ha
밑판
쇼트키
전방면
내기
취해진
궤환
위주
Ma
지문인식
Resource
된장
충전장치
디옥시
정답
##지원
작제물
##uel
lip
출원번호
IPC
복사열
##징어
주화
전사체
진세
텔레매틱
항종양
호기성
엑기스
318
베리
상하좌우
ISD
능률
##봉지
Mar
폐가스
물결
산기
SiGe
재송신
제강
상한값
유틸리티
감전
균일화
테트라카르복실산
##시키므
수직선
030
##escence
생체신호
mark
실린더부
MTJ
여야만
듀플렉스
텔레매틱스
부적절
펠리클
ca
Image
##수축
투여군
기통
HEP
FG
414
##uss
##orn
락토스
정해진다
딱딱
아스파라
emb
성명
##zer
##LP
MMA
캐싱
분급
회동부재
post
솜
세파
iso
이라도
판단단계
미세먼지
human
##bl
피검자
이차전지용
solution
angle
벨소리
##세탁기
##escent
랜스
RNTI
##슬래그
덱스트란
탄소원자수
##실행
자라
고정플레이트
장척
오리지
흡장
TAT
포스파이트
Mill
플리커
아질
표면층
전적
GPRS
이중화
##벌레
마찰계수
복호부
메틸화
배양기
##관리시스템
weight
넷째
발레
사용자단말기
조절수단
톱밥
워킹
##sm
끄
달하
미세화
KHz
올리고당
블록킹
##획득
정전척
820
Disk
호안
히드록시알킬
Wat
규명
오렌지색
##bi
##레이어
##발포
안경테
##리더
상측부
인기
Mac
교환수
프로판산
표면파
네이트
##가노실록산
sn
수신시
헤테로알킬
integrated
카르밤산
##량제
##bo
란탄
가수분해물
대치
배선용
263
별법
storage
스테인레스강
디플루오
출발지
##편향
der
##ignment
산화층
글루카
##기전
##스크롤
스테아린산
피라미드
PROD
예비중합체
해짐
주기율표
올리브
인증서버
485
타임스탬프
현가장치
##설폰아미드
나트륨염
에톡시실란
##염소산
FU
위치고정
일리
AH
강화유리
울트라
##장치부
카르복시기
원한다
스크라이빙
chain
접지전압
구동풀리
통기구
##ottom
수평프레임
염화칼슘
##ines
금속화
걸릴
분배부
table
독취
solid
세그
##알칼리
Systems
도광체
##고받
부딪히
산화환원
AAV
abs
가이드핀
##epar
smart
박편
##가닥
아라비
디스커버리
약어
vehicle
##13
##ORM
PLMN
팔걸이
즈
키텍
턴디쉬
고유전
벤조티오펜
양액
부주
동선
메틸스티렌
래들
Cold
각광
##투명
##칼날
충전물
247
구아니딘
##수신기
기다리
하차
임신
SSL
##실드
티타니아
책임
전열선
어스
사라지
사보
전자소자
seal
키가
최외곽
##무트
오메
##시동
부풀
복강내
##over
하네스
마켓
##토판
스루홀
Spect
경화막
수탁
접동
App
파킨슨
MAS
오늘날
##사이클로헥실
추정값
##hex
시클로덱스트린
Serial
밀착부
차량번호
교환수지
투자자
##시브
부가서비스
채집
HRMS
##aste
네일
식감
CSG
수수
노광량
##FA
휘도값
##통과필터
ke
##피라
잠기
끼움돌기
모드시
실행부
##중앙
두어
##Et
열전도도
메틸이미다졸
젯
##특허출원
##방지막
CMD
점포
전동모터
BW
마스크막
차종
탄성스프링
Controller
##선스
##회선
요입홈
##MV
---
272
##ORT
조심
트레오닌
열변형
Tetra
253
열악
421
보호대
필연
지게
345
각속도
text
DTMF
양도
엑스레이
DW
day
##ester
내보
플라크
Ry
카로
##cohol
보호판
기록부
AID
옥세탄
모듈러
kn
이어진다
phone
##ste
SEC
악곡
##초산
BPS
##코픽
주고받
mbar
반응혼합물
최상층
트랜스펙션
SIB
압축성
아이스크림
Rs
캠코더
압력실
##vir
기전력
논리곱
##덕턴스
폴리디메틸
Vis
향미제
분광법
##센싱
전화망
508
압축강도
저비용
베어링부
아크릴로일옥시
랩탑
원지
윗쪽
##감지기
DIN
확인응답
333
무선단말기
실적
변속비
부호기
##트론
가용화
삼차원
골퍼
푸릴
진세노사이드
cos
배합비
##지방산
생체적
##사이클린
붕해제
감산기
Pe
pur
채권
##형성부
##omonas
탄성지지
아니한
##aining
송신신호
시브
기전
칼로리
정유
##국장
내려져야
인터커넥트
에피택시
고정단
작아진다
염분
PRB
Table
연결공
식기세척기
WD
쌍극
##RO
발효조
##사민
##치형
##anguage
호화
##로터
##바운드
Hu
대지
콜레스테릭
중고
승산기
세슘
ol
후면판
발진부
최하부
폴리테트라플루오로에틸렌
잠상
##인가
웹브라우저
견지
수의
##베드
266
구동유닛
##발성
여섯
##축부
나올
입계
조립구조
선발
희박
##레지스터
##ethane
재정렬
##SION
체결돌기
플라이휠
제공서버
몰수
선미
##끼리
불산
##acchar
난이도
공부
샤프
##치수
##장공
가우시안
##회전수
rd
외부전원
컴파일러
가청
수평상태
칫솔모
##음성
이노
고객단말
폴리아크릴산
저장통
##트리에톡시
서적
입술
세워진
##갱이
##마운트
##carbon
Top
peak
Rg
arm
sign
봉쇄
초콜
hot
보스부
위반
탈염
384
ECM
표정
디아자
Program
샤워기
##워진
비치
rac
내측부
휴대전화기
cycle
protocol
중질
메소
보정량
WW
Ke
중대
접지선
CCE
납골
빠짐
끼움결합
토출량
050
축합물
##다공증
용해물
어시스트
괄
한항
골다공증
제휴사
호이스트
Lactobacillus
flo
##투자
극단
설사
오랫
message
설계자
Wa
에피층
로브
##2,
소진
525
brom
기판측
Vcom
게이팅
최하단
medium
##포화
끼치
atm
##ulose
Engine
Protein
잠금부
Xe
보호관
##IGH
personal
고구마
전원단자
엉덩
저가
Oper
지지홈
항온처리
재사용
적층막
이기
첨단
##87
RAS
외장형
하체
인핸
##에스터
하드코팅
개질기
메틸설포닐
카울
혼합용매
MK
##대출
편광필름
MSB
감광층
상호간
연자성
비도전
UA
가공시
수분함량
단파장
전자기장
##imary
스러
적소
연결설치
##시톨
시켰으며
세포사
유출물
SAR
##로트
건조제
타정
불출
전극봉
강연
##로시
크라이
회백색
냉풍
오로지
프라이머층
##방수
평탄화막
에톡시카르보닐
사포닌
절삭유
transmission
##디뮴
볼트공
베르
HAVING
##관로
상부몸체
테트라부틸
##구아
하이라이트
알콕시카보닐
FACS
파면
근접센서
주변기기
immun
##색소
request
충전량
견적
전면패널
QPSK
확산기
##atile
디메톡시페닐
화력
##패키지
자유로이
서버측
##ality
제조법
불소화
##지대
헬스
인형
##자형
방향족기
##세이
광투과율
다이에틸
욕구
냉매가스
comprising
습득
통수
장착구조
캠축
다짐
##ify
헤테로고리
##필로
구획판
락탐
##오븐
아일랜드
에게서
like
회전동력
##계조
휴식
살리실산
아데노신
Hep
Hydro
집진장치
##rap
##89
##선별
##AF
SAP
추구
##제제
KF
알갱이
접촉점
감방사선
배수공
브라우
극세
##ubber
아동
##가속
##포스피노
STB
트리플
예치
비주얼
괴사
알킨
##HC
고에너지
에뮬
바이오센서
킹
세척조
나사축
피페리딜
인핸스
안락
비닐리덴
PDN
고양이
혈관신생
기울어져
##upling
원색
##염색
양측벽
1020
COL
##화장
BG
디티오
##ypt
링형상
포스포늄
##절환
##BE
뉼라
잡아당기
아세틸아미노
아세토페논
오프닝
객실
##구균
친화력
로지
조절밸브
activ
액압
찰
assay
다이폴
나갈
##캅탄
SSC
##83
+),
##ellow
여진
네이
탄소원
기계가공
올린
LOC
부저
oC
절연물
결제할인정보
TCR
간암
알콕시알킬
##카트리지
PMP
window
왕겨
조그
##46
Ther
칼라필터
화물창
너클
HPV
중합도
##베이션막
##단말장치
##포켓
합병증
##ITY
잇몸
알킬카르보닐
과민
packet
지지관
Computer
알드리
Address
질산염
와전류
압출물
Prot
##리터
##NSS
지갑
마크로
##파워
##ival
수소가스
##서명
반응부
##포스트
좌대
transistor
##pha
##자임
Ci
##배출부
봉착
부티로락톤
테마
실리사이드막
아이소프로필
뉴클레오시드
열전도율
페이딩
-/
기판부
지연기
절실
카드번호
설치대
압착부
IgE
이슈
LY
아다만탄
애퍼
노난
생산자
외부케이스
지렛
다시마
반비례
커다란
얹혀
배면측
TEA
xx
PPAR
생리대
역사
##콘텐츠
MFR
양변기
와트
폴리락트산
화학반응
판독부
ZnS
자기저항
웨이크업
기둥부
냉각관
캐치
후크부
관통형성
dL
Mot
##aaa
##일드
트라이아졸
Active
##헵탄
Gas
Transform
##라지노
동족
고정봉
normal
활성물질
배선기판
반사파
DU
한국공개특허
가득
호박
ANT
알루미노
HSDPA
점탄성
투과부
조질
구성부품
아스파라긴
therm
bus
안전벨트
오랫동안
고점
급송
한외
##SR
음절
왕복이동
condition
##어내
RPMI
Transfer
프라이버시
액제
개환
복소환기
polyethylene
찾아내
다이클로
Home
건조물
보텀
Package
파쇄기
밀어주
회전속
도파민
##브로마이드
농후
킬로
시린지
431
조형물
##옥사진
고융점
올바르
픽셀값
타르타르산
이모
Vi
##sk
속력
갑판
##vis
심층
못했
나이트로
##개질
435
xi
내부식
페닐메틸
투입량
구동부재
PPh
실외측
Cm
설치공간
콜린
연료전지용
낚시대
COMM
352
오일펌프
CMC
##니스트
아크릴산에스테르
브루
##절개
##가동
스루풋
0005
유기전계발광소자
냄비
Ang
초점거리
341
수취인
어려웠
418
##iated
제기
위치기반
Lett
##톨로지
노출부
수직부재
##운행
Machine
prot
라파
보석
부틸디메틸
##독소
##티노
##광석
추진력
합금화
지인
##건조기
Ver
배열체
아이피
고정측
온톨로지
semiconductor
##order
413
치구
app
세레
##ACE
올레산
chloride
MOC
604
##카빌
##다이드
사이클로덱스트린
thin
##베어
Hal
압력계
오징어
TDM
고정결합
적어지
271
트랜지
SMA
감량
이젝트
##프로피오네이트
디스크램블
알칼리금속
맞출
스크레이퍼
##atg
ft
Cycl
상전
##거푸집
초크
정성
##트롤
녹는점
수납실
error
솔벤트
##통체
가성
Py
흘리
저주파수
잔상
##추어
미세조류
##ply
Pass
NL
##퍼링
##나사부
토코페롤
Identification
##ithm
후행
Model
전지팩
##발판
기다란
구부러지
피착체
##사이즈
배기부
##킨후
담즙
nan
앰플
트레일링
work
푸싱
일도
머지
하한값
LSB
##WER
##목재
오가노
vapor
활석
CSCF
시프팅
기온
##트리메틸
클렌
##for
악기
받아들여
방적
리퀘스트
MEK
hom
디에톡시
Ann
달력
##디바이스
볼펜
PAS
차폐층
##생활
달라붙
외란
온도값
##상판
피난
##itan
파레트
애플릿
접목
Of
##CTOR
에치백
연료극
회원가입
선출원
BASF
구부러진
##모션
재산
전화번호
정해져서
##PL
##raz
189
해조류
모빌
IMA
이식편
축봉
CHR
뇌졸
##쿼터
플러그인
혈액순환
##전사
FN
conduct
코사인
로울
Audio
##IAL
고통
아미노카르보닐
Equ
%∼
##inary
회전장치
헤미
점액
##유발
펜틸기
혼합부
보호장치
접착테이프
입니다
##igation
NHR
##돌출
포터블
전기로
수심
고진공
광고물
풍력발전
전극패턴
CTR
폴리페놀
안내공
차폐판
##47
거듭
Eco
아지드
세선
##ican
내선
section
생합성
Kim
NY
mask
송로
##밀봉
꽂이
CaCl
ONU
챠트
MOB
##86
무산소
스키마
대시
Rp
쿠키
다형체
고감
패시베이션막
##중국
준설
세포독성
CCR
아자스피
디지털신호
##ava
블리스터
구동전원
상인
EPROM
##uls
##자동화기기
model
##체결부
인트라
##방지부재
##축기
##작업시
기구부
TLR
##톡사이드
압유
체외
나프탈레이트
워크스테이션
기종
가상현실
Vr
유성기어세트
승강장치
다이페닐
##itt
주령
zero
′-
하도
전원스위치
강압
주민등록번호
황화수소
조건부
Pseud
##차저
파장대
원격제어장치
화석
Fin
음경
920
agg
항진균
ArF
RY
box
인쇄매체
##ync
재생시
도해
처리군
술폰아미드
에틸아민
##라디
XL
상하측
옥텐
시클로헥사논
##조제
input
##연결부재
##형부
화상신호
##mand
단부측
고인
표면장력
홀더부
Rate
##ouse
복수회
도입부
패들
전자주입
PLS
##다지
complex
닥터
허락
회전시키면
##벤조페논
미설명부호
830
##고니스트
PVP
봉인
요오도
##수납부
##IZ
포물
object
트립토판
NRa
집적도
테트라플루오로
Thin
##BL
접혀진
종별
수경
분사관
SBR
구명
##ersh
##선상
나노구조
폴리아닐린
제작시
스터브
##Cr
##씨디
##reatment
##ferential
확관
Server
합금층
phys
##염료
##머스
Subscriber
퍼터
변형량
열압착
phosphate
##ensis
비스듬히
개구수
면역반응
EPD
아실화
Standard
유기계
246
면접
부가염
통과공
007
소장
산도
MEA
web
전기기
방전관
URI
##ble
앞부분
광폭
활성성분
상차
카스
##본딩
##재생장치
고추장
##agc
Vss
##장갑
요청신호
Short
부력체
##골격
##가정보
협업
분명히
MnO
석쇠
불량품
줄어드
분산매
탄성파
##ll
현존
과자
염화암모늄
##설파닐
spin
노광광
올려진
시클로프로판
##접속부
청국장
열전사
##uted
pe
막혀
맞물린
1987
션트
##조절기
##ocus
##--------
난반사
##첨가제
##지어
##수거
-({[
드럼세탁기
공기주입
추상
##락탐
변위량
축결합
방수시트
넌
##ATT
Assistant
템플레이트
gm
회절광
사분
관부
목표물
올릴
##카세트
##터빈
##rical
##change
##검출수단
정화장치
수영
능동형
Downlink
음향신호
Tween
무정형
작동시키기
트리에탄올아민
##imit
산세
절연부재
광산란
Call
##위치정보
잠열
##할로겐
반응용기
##데이터베이스
##SA
##응집
영상처리부
밀봉부재
ether
단문메시지
call
사용자별
XII
되돌려
권취부
객관
뭉치
놓인다
디벤질
측정법
서브루틴
배속
##레이즈
##결함
크로스토크
##세틴
’-
##unc
오퍼레이팅
##azole
고정너트
515
수납용기
단열층
퇴적물
처리수단
##표준
삽입구멍
substrate
##우즈
##크리
건강기능
그랜트
##예측
##음향
pg
지가
수신용
상도
작업장
질소원자
GNSS
유압모터
##네이토
support
##text
필터부재
나노구조체
서부
##증폭부
방습
##idin
##계측
##인출
디메틸술
설치공
채널부
##실라
진수
이송스크류
디메틸에틸
##자세
##시다제
종료시
######
미분탄
읽혀
흡착판
회전봉
Drug
under
##FP
레조
BGA
##벤즈아미드
valve
대학
HAT
시트벨트
WH
##NH
##쿠폰
맥박
보전
살수
##ared
골수종
피마자
편입
광학소자
screen
##푸라닐
말단기
일체화
사용자단말
차액
플러싱
유출관
이황
부응
Play
트리알킬
##ASH
##독시
전기저항
##aracter
발현량
편물
배광
단클론
760
여타
강모
외함
변압
REQ
start
우울증
##테이터
피라졸릴
도색
무선통신부
##스위
영양분
##살균
사일
##ina
공시
출한
전극선
OCR
VOB
교사
양품
합성물
PER
과냉각
##aring
##퓨즈
걸어맞춤
가압롤러
##접촉부
##치먼트
Ins
기초부
temperature
##합중국
써모
##리늄
techn
Ak
지렛대
무화
깔창
lead
##러기
이끌
스트리핑
##이어스
##크산
가속기
##솔브
##비어
규조토
전극군
크랭크샤프트
리드부
SOG
제빙기
눌러서
데이터베이스부
온돌
HIGH
접안
파장판
개폐문
##inase
다환
EPO
모르폴리닐
##데크
알아내
회전모터
##감지장치
얼라이
fill
누를
폴리옥시알킬렌
밸브몸체
스타터
laser
Hex
##설폰일
덱스트린
투명판
배수로
덧셈
UT
벤질기
##챠지
제어선
STAT
전극체
염료감응
유골
장내
이미터
##ages
활성도
##정정
##met
이루어져야
종이컵
334
asp
비스무트
##음료
절첩식
포즈
금융자동화기기
##보강재
계자
취사
부종
페니실린
총괄
붙였
그림자
##트렉
Pc
매번
이동용
삽설
magnet
'),
##넬라
##플루오렌
축사
아가로스
스몰
노선
헤르
동력전달장치
비행기
벤치
에어콘
지게차
chamber
합성법
서브셋
##crete
##aking
외인성
안경다리
작동로드
스프링클러
전극패드
슬라이딩부
configuration
무한궤도
폴리곤
LQ
전표
코팅부
금융결제
##말레이미드
광은
보관부
나프타
##vert
기와
프라이밍
염과
미합중국
예비성형
##acking
징크
겹쳐진
012
말기
DHCP
##도장
##ee
유입수
resource
동력전달부
회합
갈바
inhib
##ending
USP
625
##rand
전력소모
##thog
경계석
##받침부
그다지
조사량
##수평
위장관
주인
토포
트롬빈
축선방향
##AGG
핵폐기물
면역학
정합부
세밀
연수
351
##압축기
플루오로메틸
액정분자
진공증착
logic
Material
##호르몬
차단부재
소파
##ior
순시
입력시
UTRA
py
##레닐기
##타아제
##ologies
특허등록
##inger
타발
니아
싸이클론
케이스부
소정치
##등급
퓨란
흡수기
indium
무기막
디아릴
miRNA
positive
진동모터
레트로바이러스
현상기
342
##몰딩
cP
헥사메틸
불활성화
유도관
분광기
퇴피
초고속
외각
num
역류방지
인쇄장치
키버튼
장치부
##전분
EPC
##RC
CCA
구성물
애퍼처
새도우
류신
공인인증
But
PZT
미세결정
평량
간결
반송부
개시점
전면기판
##어났
##베리
미지
근무
Super
결제승인요청
북마크
돌출턱
##ij
오리지널
변곡
IU
Bit
##acu
##투입구
발전부
떨어져서
부구
내약품
COX
수구
추진제
전자메일
가공방법
양분
##INT
COS
용질
패시브
##irror
##thogonal
276
호가
산제
안트라퀴논
디클로로에탄
알킬설포닐
프레넬
끼움공
##미자
설정정보
##EK
##둔다
옥사졸리딘
글리코실화
적층구조
스티로폼
인출부
FIC
접착재
##드기
-{[-
##분류저장정보
자수
리그닌
InGaN
317
난소암
격지
##ymb
실물
블래
가상선
##rared
플레이팅
##book
##Zn
미치환
슈도모나스
File
Ax
클리어런스
폴리아마이드
##49
주름부
장거리
메틸렌기
스플릿
##와셔
Kore
##에지
외접
416
TOF
제조업자
NTSC
연성회로기판
Portable
내습
나사홈
될수록
감싼
메틸아민
모듈부
락토오스
##ALL
##약자
butyl
조작레버
종래예
##밥솥
게시물
Coding
하프톤
졸린
넘버링
데이터전압
웜기어
압력값
초산에틸
##monium
메이크업
Source
동절기
605
강구
투시창
disp
linear
검출회로
표제화합물
췌장암
헵트
##그리
##테트
Zig
MRAM
super
구내
##사용자
##타이어
assembly
위암
CAD
##ertical
##idase
부채꼴
모여
도수
product
##fficient
광전지
노후
광석
담겨진
Germ
반응실
##cover
주사제
드레인영역
짓
first
이형제
나사식
십자형
##광택
생산물
##unn
사본
##분무
파리
##환자
의견
가로대
웨더
Fv
파일명
LUT
exc
등판
수직판
cam
수월
phr
GH
326
Band
위급
##ively
네온
정류자
composition
##히드린
텔레스
동판
tele
영상표시기기
##믹서
피험체
##inter
테스팅
electrode
승용차
머드
쓰루
스프레드
Hs
##ild
복용량
##카프로
뉼러
선택도
후판
덮이
적당량
##ilt
건강기능식품
촬상소자
조절부재
페닐렌디아민
방벽
음용수
pn
카오
보강대
모니터링부
회수부
##azol
카올린
##게노
요원
싱크로
##lue
다니
연산자
겸비
퀴논
##광도
마이코
배향제
인터레이스
Silicon
정상부
BPSG
tol
총중량
촬상된
강산
##관리장치
740
유도가열
주입량
신호라인
pm
268
챔
Enhanced
Dy
예측값
DCH
PLD
Dynamic
Strept
domain
row
스며들
광통신
농가
소오스
CNH
pc
마운팅
##제닉
계기판
VPN
+:
워터마킹
고밀
트리부틸
UC
다이내
시판품
tan
암호키
680
담지체
오버코트
음성데이터
##OG
##로일옥시
용기부
##니틴
담금질
840
내화학
와이핑
전기모터
av
##criptor
방수층
##itri
체류시간
##ara
##eptide
##카르보
클레오
텀블
eng
##에멀
벗어날
virus
##리트산
##레이저
생성장치
이소프탈산
AUT
조차
검출방법
+):
합성섬유
알켄일
전기기기
##실장
접이
HBV
축광
항문
카복스
Level
wireless
delay
1024
메소드
시소
전염
##메트리
##니스커스
침하
td
409
ROI
##시킨후
EPDM
dry
vari
Evolution
황동
후레
여닫이
274
제고
##plink
프로비
##변환장치
증착원
주사전극
방화문
LiPF
Nov
적분기
러닝
##규모
MULT
1050
Die
plane
발주
크릴레이트
702
##제트
옥상
AZ
HI
아마추어
하층막
##덱스
모자이크
코팅재
코리
##노출
묵
charge
메틸피롤리돈
##heel
용변
LiF
##Re
망체
금구
급전부
##디얼
##요부
##칼라
미팅정보
방수성
603
알드리치
현수막
배근
##디메톡시
오거
가열판
701
달톤
##imal
HEVC
천공홀
##nP
##텍트
위약
##다른
##규격
산화주석
생수
제품명
지지턱
합니다
##용구
고정틀
DMC
공압출
feature
Transmission
플립칩
cyt
교환막
터보차저
포스폰산
조절판
밴사
진전
##osed
288
각인
HY
negative
##대조
인플레이터
직포
##홀드
HSP
##로킹
이타콘산
이동통신사
식모
##로마이신
방풍
네이터
lact
인식기
메탄설포닐
##에러
결코
LIGHT
언더필
외조
음질
보호캡
##비르
msec
590
est
273
축받이
보조장치
하이드록시알킬
컴퍼
KCTC
##프리터
아세틸아세토
하우징내
공정가스
느려
플랙
258
합성가스
만노
전기히터
##보노이드
메틸메타크릴레이트
원용
용장
##왕복
Prop
초콜릿
LDL
하락
식별부
타이타늄
인가시
어려워진다
내접
스노
Ext
DMD
배리어성
##cent
8000
##무선
강해
##CF
하측부
Corp
두루
콜백
PBMC
광학필름
다공체
##KL
대추
주사신호
시퀀싱
##일자
스트레칭
output
넘어가
자리수
발현벡터
퀴즈
플레이트부
이색성
변류기
화합
신청서
추이
배리어막
나사봉
메니스커스
완제품
정전류
큐어
부타
인쇄부
철분
인데닐
REC
배기팬
중화제
##메타손
vector
##바이어스
소정거리
잡초
IMP
바꿀
Gb
전기전도
Transport
##펀치
우드
##디언트
space
다중층
홍반
벨크
scale
SEMICON
YAG
Lu
접착부재
주원료
##스타일
SINR
포장박스
골절
할지라도
농업용
커버체
분주기
##ophil
FIT
연신율
1988
반응챔버
불빛
상관값
단열성
유도부
메톡시에톡시
톱날
mole
지지틀
##지르코늄
승강수단
유의성
MOCVD
첩합
치열
음식점
##DUCTOR
POLY
프롬
회전기어
##17
여서는
아미노알킬
##asurement
제방
뒤따르
양친
##ening
##억제제
수평선
부호어
##레이너
##ault
##흑연
kit
이슬
헤모글로빈
DSM
이민
베어
유출부
클로로벤질
##비시
휘일
복합계좌
OPC
WF
coding
##드라이브
Opt
Op
페난트롤린
Vf
환기장치
order
다면체
송장
예취
내주측
##벽면
조생성물
Response
평판부
##현장
PCC
재해
유독
복사기
Carrier
Ct
일정기간
프로드럭
tc
공기극
##VDD
넓히
사염화
날카로운
낚시줄
신호대
승차감
##Sb
다운믹스
tag
하이드록실기
DIPEA
##load
PLP
connection
관통홈
낚싯대
친핵
플렉스
Speed
적색광
모종
함유층
업종
SEMICONDUCTOR
##스트랜
##19
단독중합체
시클로펜탄
##선택부
Nucle
깔대
##osa
only
암모니아수
sit
RAD
빈도수
색재
가맹점정보
숙주세포
##스텝
바니시
compound
점적
select
중간부분
Acc
##fluor
##컨대
BLK
호중
##소르베이트
헤테로방향족
재액
밴드부
MIN
제동장치
순환관
제어반
부유체
division
도즈
위치추적
제작비용
교류전압
##좌석
약정
##아스
FIR
분액
하이드록시기
적정량
메틸프로판
##olding
두께방향
아몰
FX
##NP
OV
고흡수성
전화선
##카라
신도
인터랙션
dm
플루오로아세테이트
인캡슐
폴리디메틸실록산
인단
Carbon
리뷰
##탑재
##전동기
스테핑
사격
IDT
pixel
재선택
##prop
슈라우드
고차
표고
저류조
인광체
##젠타
되돌리
리피
My
##WF
글리시독시
관절부
##타틴
Over
transport
제어값
동압
##내측
수크로오스
##트라이
폴리소르베이트
인풋
직불
식도
바코드정보
흑백
데코
국선
하이드로카빌
함수율
fit
threshold
PNA
리듬
면하
록부
세절
광유
##ulated
한국등록특허
백오프
통신단말기
수소화물
쓰레기통
fab
조면
배변
가공기
##적재
##HI
##라디칼
심전
안착면
PAP
##정보단말기
##SE
스토리지노드
HOM
중독
메톡시기
메모리장치
배출홀
심박수
CTLA
##rook
통계학
gt
040
토픽
도입관
술폰산기
께
##이딩
스케일러블
기어비
구해진다
##미널
종동축
그곳
##테인먼트
디프로필
에어로겔
글루타메이트
267
숙지
소직경
외판
디포
뇌졸중
density
##집중
노보
KCl
전기변색
hyd
서브채널
801
제거기
program
##니드
래핑
257
어태치먼트
피혁
억지끼움
홀로그래픽
대기상태
방염
##제거장치
참조예
##글라이
폴리사카라이드
할로게노
dynamic
FW
에테닐
##닉스
이로인
가이드공
주사바늘
514
감쇠기
거친다
바구니
Solid
282
말론산
OPT
병리학
EH
감쇠력
##원형
##세라믹
##ck
##폴리올
##회복
##비페닐
sk
마젠타
결정체
분기부
산화인듐
이성
##셔터
##GaAs
psig
##경계
seed
연속주조
공백
##iton
##아이소
번인
부톡시카보닐
방화벽
상분리
유모
리도
##장벽
##해석
눈부

##,
##이
##의
##는
##에
##하
##기
##로
##.
##다
##상
##을
##한
##를
##도
##수
##제
##시
##서
##부
##1
##가
##지
##어
##스
##있
##되
##성
##2
##정
##고
##으
##-
##전
##)
##된
##(
##리
##은
##0
##용
##트
##치
##구
##터
##사
##여
##단
##인
##면
##조
##자
##적
##해
##형
##과
##장
##3
##위
##동
##및
##보
##체
##e
##방
##일
##발
##화
##드
##나
##라
##와
##공
##대
##또
##포
##소
##실
##유
##들
##명
##a
##함
##C
##내
##물
##5
##것
##4
##i
##예
##본
##신
##분
##결
##게
##비
##합
##할
##레
##프
##그
##n
##t
##o
##m
##아
##중
##r
##계
##출
##각
##연
##l
##바
##호
##재
##록
##통
##선
##크
##경
##S
##모
##개
##입
##세
##따
##A
##반
##산
##우
##미
##6
##설
##력
##간
##c
##디
##측
##s
##관
##P
##메
##판
##원
##타
##R
##특
##주
##생
##D
##M
##진
##러
##H
##배
##며
##데
##표
##플
##른
##질
##직
##7
##속
##작
##I
##항
##식
##N
##광
##T
##오
##8
##회
##량
##향
##:
##g
##태
##저
##법
##같
##안
##접
##될
##차
##층
##거
##d
##압
##O
##열
##능
##마
##변
##영
##파
##환
##9
##버
##;
##E
##L
##p
##등
##피
##키
##양
##브
##요
##착
##송
##테
##노
##/
##역
##더
##행
##후
##루
##액
##절
##틸
##음
##복
##필
##응
##패
##외
##징
##코
##온
##알
##매
##u
##임
##점
##만
##B
##래
##축
##때
##료
##증
##F
##처
##클
##감
##히
##르
##문
##않
##금
##카
##페
##종
##블
##류
##극
##급
##h
##링
##교
##말
##b
##막
##람
##택
##술
##였
##탄
##%
##G
##무
##니
##현
##티
##템
##추
##약
##y
##V
##닐
##토
##갖
##"
##당
##운
##커
##두
##평
##검
##효
##편
##학
##강
##폴
##널
##확
##초
##써
##킬
##렌
##f
##품
##케
##값
##투
##별
##릴
##립
##퍼
##U
##업
##건
##달
##격
##워
##컨
##색
##린
##염
##목
##활
##었
##콘
##충
##네
##석
##션
##청
##름
##혼
##센
##최
##불
##율
##참
##°
##베
##준
##촉
##돌
##번
##밀
##심
##채
##범
##순
##[
##]
##팅
##롤
##턴
##셀
##냉
##균
##야
##랜
##즈
##께
##백
##높
##'
##너
##폭
##존
##슬
##첨
##램
##v
##낸
##없
##듈
##흡
##즉
##k
##련
##올
##국
##므
##집
##폐
##박
##딩
##x
##려
##머
##옥
##W
##허
##쇄
##켜
##탈
##받
##홈
##칭
##=
##근
##삽
##닛
##벤
##림
##X
##얻
##암
##웨
##길
##독
##홀
##완
##캐
##벽
##느
##K
##헤
##핀
##킨
##컴
##손
##좌
##볼
##z
##w
##밸
##벨
##~
##침
##험
##+
##글
##취
##승
##엔
##득
##텐
##까
##걸
##농
##략
##퓨
##쪽
##싱
##져
##란
##럼
##민
##칼
##콜
##봉
##론
##억
##융
##Y
##μ
##언
##늄
##먼
##됨
##곡
##졸
##황
##J
##섬
##든
##∼
##핑
##애
##규
##몸
##츠
##족
##픽
##딘
##천
##병
##권
##톡
##망
##흐
##습
##몰
##울
##획
##낮
##룹
##움
##날
##폰
##창
##군
##렬
##난
##줄
##_
##욱
##령
##휴
##잔
##쳐
##킹
##누
##Q
##척
##철
##혈
##펜
##락
##륨
##많
##킷
##챔
##Z
##잡
##앙
##끼
##{
##}
##살
##톤
##컬
##객
##펌
##멀
##멍
##했
##칩
##맞
##쌍
##째
##캡
##헥
##닥
##켓
##튜
##털
##답
##둘
##럭
##샘
##릭
##납
##빔
##뿐
##골
##큰
##즐
##새
##런
##휘
##탁
##풍
##찰
##담
##닝
##굴
##률
##탱
##촬
##펄
##·
##녹
##쉬
##뉴
##덮
##넷
##밍
##놀
##셋
##랙
##켰
##논
##솔
##잉
##얼
##좋
##샤
##튼
##렉
##쉽
##푸
##풀
##례
##엘
##빈
##q
##틀
##믹
##힌
##킴
##*
##닌
##틱
##탑
##넥
##던
##퀴
##핸
##힘
##악
##벡
##친
##견
##끝
##혹
##펩
##릿
##몇
##육
##웹
##못
##앞
##롯
##총
##델
##슘
##삭
##핵
##텍
##틴
##긴
##희
##겐
##삼
##즘
##싸
##갈
##잠
##×
##팬
##헌
##섭
##팽
##α
##빛
##룰
##콕
##텝
##았
##밴
##짐
##톨
##숙
##셈
##셔
##큼
##캔
##넣
##턱
##덕
##귀
##남
##웃
##탐
##찬
##펙
##겔
##떨
##덴
##랩
##겨
##윤
##빙
##월
##멘
##벌
##젝
##횡
##첩
##튬
##잘
##휠
##팩
##j
##벗
##쓰
##혀
##맥
##깊
##놓
##봇
##젠
##빠
##덱
##팔
##렇
##뒤
##쿠
##캠
##섹
##넌
##듐
##윈
##뢰
##넓
##둥
##늘
##슐
##톱
##「
##」
##떤
##β
##펀
##폼
###
##퀀
##멤
##겟
##텔
##년
##롬
##롭
##펠
##눈
##랭
##칸
##씨
##익
##뱅
##럽
##념
##맵
##퇴
##탕
##책
##협
##큐
##딜
##≤
##δ
##맨
##랫
##쇠
##읽
##짧
##첫
##뚜
##붕
##밖
##듀
##밝
##칙
##곤
##슈
##곳
##떠
##웰
##펴
##뷰
##갱
##닫
##쇼
##껑
##넘
##괴
##엑
##흑
##켈
##졌
##맷
##멸
##김
##춤
##얇
##씩
##숫
##갭
##낼
##탭
##륜
##젤
##댐
##꺼
##넬
##몬
##끄
##붙
##뮬
##렛
##왕
##멜
##낙
##궤
##셜
##좁
##컵
##앵
##칠
##덤
##곱
##빌
##돈
##횟
##젼
##θ
##눌
##츄
##곽
##팁
##팀
##ᆞ
##±
##헵
##렵
##겹
##뇌
##앰
##밑
##좀
##욕
##콤
##북
##깨
##랄
##맹
##엠
##럿
##잭
##옵
##냄
##밤
##갑
##왜
##찾
##홍
##헬
##“
##”
##닿
##Δ
##컷
##뇨
##툴
##죽
##텅
##띠
##흘
##잎
##둔
##왔
##줌
##흔
##Å
##γ
##굽
##쉘
##듯
##깥
##땜
##빗
##맛
##렴
##뒷
##겸
##젯
##틈
##럴
##끈
##븐
##셉
##춘
##뮤
##댑
##λ
##’
##꾸
##→
##룸
##뛰
##빨
##픈
##엽
##※
##묘
##쌀
##윙
##깔
##늬
##낭
##닉
##괄
##섯
##났
##짝
##엄
##십
##핫
##뎀
##룩
##&
##텀
##탠
##칫
##낚
##뜨
##꽃
##앱
##?
##캘
##찌
##씬
##멈
##～
##<
##꼬
##쿨
##콩
##펼
##탬
##뼈
##껍
##깃
##춰
##왁
##캅
##먹
##밥
##랑
##′
##젖
##앤
##왼
##쟁
##®
##윗
##―
##짜
##쿼
##슨
##끌
##훈
##냈
##쥐
##훨
##돕
##꼭
##△
##뿌
##긋
##벳
##랍
##궁
##엣
##|
##덜
##옮
##귤
##잇
##놈
##휨
##켄
##옆
##‘
##>
##벼
##듬
##룬
##씰
##흙
##빼
##즙
##뻗
##덩
##Ω
##냅
##덧
##렐
##섀
##췌
##옷
##렁
##섞
##샌
##뿔
##폿
##돼
##풋
##뚫
##쥬
##돔
##옹
##님
##웜
##핍
##숯
##힐
##쌓
##쾌
##튀
##쥴
##끗
##붐
##뜻
##묶
##끊
##렙
##뚝
##흰
##묻
##엇
##깅
##꼴
##펨
##햅
##쐐
##φ
##갯
##롱
##쉴
##≥
##솥
##씌
##헹
##헐
##겠
##ε
##솜
##떻
##챠
##쉐
##싼
##앉
##굵
##샷
##슷
##깝
##ᄃ
##겉
##닙
##뭉
##ω
##꽂
##짓
##뮴
##넨
##펫
##떼
##곧
##〕
##〔
##냐
##끓
##큘
##앨
##훅
##딪
##딥
##흥
##떡
##붓
##빵
##팝
##팡
##굼
##혐
##딱
##맙
##π
##얹
##엉
##뀌
##캄
##흉
##○
##옴
##〈
##팟
##밧
##곰
##띄
##홉
##쏘
##끔
##싯
##닭
##겪
##꿀
##팜
##늦
##쑥
##ᄀ
##〉
##뉼
##꿈
##●
##뉘
##릎
##킵
##숨
##훼
##묵
##部
##멧
##σ
##앗
##혁
##η
##퀘
##웠
##렸
##面
##슴
##듭
##얀
##땅
